{
  "version": "1.0",
  "truncation": null,
  "padding": null,
  "added_tokens": [
    {
      "id": 0,
      "content": "[UNK]",
      "single_word": false,
      "lstrip": false,
      "rstrip": false,
      "normalized": false,
      "special": true
    },
    {
      "id": 1,
      "content": "[PAD]",
      "single_word": false,
      "lstrip": false,
      "rstrip": false,
      "normalized": false,
      "special": true
    },
    {
      "id": 2,
      "content": "[BOS]",
      "single_word": false,
      "lstrip": false,
      "rstrip": false,
      "normalized": false,
      "special": true
    },
    {
      "id": 3,
      "content": "[EOS]",
      "single_word": false,
      "lstrip": false,
      "rstrip": false,
      "normalized": false,
      "special": true
    }
  ],
  "normalizer": null,
  "pre_tokenizer": {
    "type": "ByteLevel",
    "add_prefix_space": false,
    "trim_offsets": true,
    "use_regex": true
  },
  "post_processor": null,
  "decoder": {
    "type": "ByteLevel",
    "add_prefix_space": true,
    "trim_offsets": true,
    "use_regex": true
  },
  "model": {
    "type": "BPE",
    "dropout": null,
    "unk_token": "[UNK]",
    "continuing_subword_prefix": null,
    "end_of_word_suffix": null,
    "fuse_unk": false,
    "byte_fallback": false,
    "ignore_merges": false,
    "vocab": {
      "[UNK]": 0,
      "[PAD]": 1,
      "[BOS]": 2,
      "[EOS]": 3,
      "!": 4,
      "\"": 5,
      "#": 6,
      "$": 7,
      "%": 8,
      "&": 9,
      "'": 10,
      "(": 11,
      ")": 12,
      "*": 13,
      "+": 14,
      ",": 15,
      "-": 16,
      ".": 17,
      "/": 18,
      "0": 19,
      "1": 20,
      "2": 21,
      "3": 22,
      "4": 23,
      "5": 24,
      "6": 25,
      "7": 26,
      "8": 27,
      "9": 28,
      ":": 29,
      ";": 30,
      "<": 31,
      "=": 32,
      ">": 33,
      "?": 34,
      "@": 35,
      "A": 36,
      "B": 37,
      "C": 38,
      "D": 39,
      "E": 40,
      "F": 41,
      "G": 42,
      "H": 43,
      "I": 44,
      "J": 45,
      "K": 46,
      "L": 47,
      "M": 48,
      "N": 49,
      "O": 50,
      "P": 51,
      "Q": 52,
      "R": 53,
      "S": 54,
      "T": 55,
      "U": 56,
      "V": 57,
      "W": 58,
      "X": 59,
      "Y": 60,
      "Z": 61,
      "[": 62,
      "\\": 63,
      "]": 64,
      "^": 65,
      "_": 66,
      "`": 67,
      "a": 68,
      "b": 69,
      "c": 70,
      "d": 71,
      "e": 72,
      "f": 73,
      "g": 74,
      "h": 75,
      "i": 76,
      "j": 77,
      "k": 78,
      "l": 79,
      "m": 80,
      "n": 81,
      "o": 82,
      "p": 83,
      "q": 84,
      "r": 85,
      "s": 86,
      "t": 87,
      "u": 88,
      "v": 89,
      "w": 90,
      "x": 91,
      "y": 92,
      "z": 93,
      "{": 94,
      "|": 95,
      "}": 96,
      "~": 97,
      "¡": 98,
      "¢": 99,
      "£": 100,
      "¤": 101,
      "¥": 102,
      "¦": 103,
      "§": 104,
      "¨": 105,
      "©": 106,
      "ª": 107,
      "«": 108,
      "¬": 109,
      "®": 110,
      "¯": 111,
      "°": 112,
      "±": 113,
      "²": 114,
      "³": 115,
      "´": 116,
      "µ": 117,
      "¶": 118,
      "·": 119,
      "¸": 120,
      "¹": 121,
      "º": 122,
      "»": 123,
      "¼": 124,
      "½": 125,
      "¾": 126,
      "¿": 127,
      "À": 128,
      "Á": 129,
      "Â": 130,
      "Ã": 131,
      "Ä": 132,
      "Å": 133,
      "Æ": 134,
      "Ç": 135,
      "È": 136,
      "É": 137,
      "Ê": 138,
      "Ë": 139,
      "Ì": 140,
      "Í": 141,
      "Î": 142,
      "Ï": 143,
      "Ð": 144,
      "Ñ": 145,
      "Ò": 146,
      "Ó": 147,
      "Ô": 148,
      "Õ": 149,
      "Ö": 150,
      "×": 151,
      "Ø": 152,
      "Ù": 153,
      "Ú": 154,
      "Û": 155,
      "Ü": 156,
      "Ý": 157,
      "Þ": 158,
      "ß": 159,
      "à": 160,
      "á": 161,
      "â": 162,
      "ã": 163,
      "ä": 164,
      "å": 165,
      "æ": 166,
      "ç": 167,
      "è": 168,
      "é": 169,
      "ê": 170,
      "ë": 171,
      "ì": 172,
      "í": 173,
      "î": 174,
      "ï": 175,
      "ð": 176,
      "ñ": 177,
      "ò": 178,
      "ó": 179,
      "ô": 180,
      "õ": 181,
      "ö": 182,
      "÷": 183,
      "ø": 184,
      "ù": 185,
      "ú": 186,
      "û": 187,
      "ü": 188,
      "ý": 189,
      "þ": 190,
      "ÿ": 191,
      "Ā": 192,
      "ā": 193,
      "Ă": 194,
      "ă": 195,
      "Ą": 196,
      "ą": 197,
      "Ć": 198,
      "ć": 199,
      "Ĉ": 200,
      "ĉ": 201,
      "Ċ": 202,
      "ċ": 203,
      "Č": 204,
      "č": 205,
      "Ď": 206,
      "ď": 207,
      "Đ": 208,
      "đ": 209,
      "Ē": 210,
      "ē": 211,
      "Ĕ": 212,
      "ĕ": 213,
      "Ė": 214,
      "ė": 215,
      "Ę": 216,
      "ę": 217,
      "Ě": 218,
      "ě": 219,
      "Ĝ": 220,
      "ĝ": 221,
      "Ğ": 222,
      "ğ": 223,
      "Ġ": 224,
      "ġ": 225,
      "Ģ": 226,
      "ģ": 227,
      "Ĥ": 228,
      "ĥ": 229,
      "Ħ": 230,
      "ħ": 231,
      "Ĩ": 232,
      "ĩ": 233,
      "Ī": 234,
      "ī": 235,
      "Ĭ": 236,
      "ĭ": 237,
      "Į": 238,
      "į": 239,
      "İ": 240,
      "ı": 241,
      "Ĳ": 242,
      "ĳ": 243,
      "Ĵ": 244,
      "ĵ": 245,
      "Ķ": 246,
      "ķ": 247,
      "ĸ": 248,
      "Ĺ": 249,
      "ĺ": 250,
      "Ļ": 251,
      "ļ": 252,
      "Ľ": 253,
      "ľ": 254,
      "Ŀ": 255,
      "ŀ": 256,
      "Ł": 257,
      "ł": 258,
      "Ń": 259,
      "he": 260,
      "Ġt": 261,
      "Ġa": 262,
      "Ġs": 263,
      "Ġw": 264,
      "nd": 265,
      "Ġthe": 266,
      "čĊ": 267,
      "ed": 268,
      "Ġand": 269,
      "in": 270,
      "Ġto": 271,
      "Ġb": 272,
      "Ġh": 273,
      "Ġwa": 274,
      "re": 275,
      "ou": 276,
      "Ġf": 277,
      "it": 278,
      "Ġl": 279,
      "Ġc": 280,
      "Ġhe": 281,
      "er": 282,
      "Ġd": 283,
      "Ġwas": 284,
      "Ġm": 285,
      "Ġp": 286,
      "om": 287,
      "Ġo": 288,
      "ĠT": 289,
      "ing": 290,
      "ay": 291,
      "ar": 292,
      "is": 293,
      "Ġg": 294,
      "id": 295,
      "il": 296,
      "at": 297,
      "Ġsa": 298,
      "en": 299,
      "Ġn": 300,
      "Ġha": 301,
      "ĠS": 302,
      "an": 303,
      "im": 304,
      "ĠThe": 305,
      "or": 306,
      "on": 307,
      "Ġth": 308,
      "Ġit": 309,
      "ll": 310,
      "le": 311,
      "et": 312,
      "ĠH": 313,
      "Ġher": 314,
      "ir": 315,
      "ot": 316,
      "ĠShe": 317,
      "Ġin": 318,
      "ĠHe": 319,
      "ver": 320,
      "es": 321,
      "ow": 322,
      "ut": 323,
      "ck": 324,
      "Ġe": 325,
      "Ġsaid": 326,
      "Ġu": 327,
      "ld": 328,
      "Ġ\"": 329,
      "Ġy": 330,
      "oo": 331,
      "ig": 332,
      "Ġbe": 333,
      "am": 334,
      "Ġr": 335,
      "Ġst": 336,
      "Ġshe": 337,
      "ce": 338,
      "ĠThey": 339,
      "pp": 340,
      "ily": 341,
      "On": 342,
      "ith": 343,
      "ke": 344,
      "Ġwith": 345,
      "ĠI": 346,
      "ve": 347,
      "ked": 348,
      "Ġso": 349,
      "Ġof": 350,
      "ri": 351,
      "Ġon": 352,
      "Ġhis": 353,
      "Ġyou": 354,
      "ĠL": 355,
      "Ġpl": 356,
      "Ġday": 357,
      "very": 358,
      "nt": 359,
      "ad": 360,
      "Ġthat": 361,
      "Ġup": 362,
      "st": 363,
      "Ġhad": 364,
      "Ġplay": 365,
      "el": 366,
      "Ġthey": 367,
      "Ġmom": 368,
      "my": 369,
      "'s": 370,
      "Ġwe": 371,
      "Ġfor": 372,
      "ould": 373,
      "ĠLily": 374,
      "un": 375,
      "ent": 376,
      "itt": 377,
      "The": 378,
      "ĠB": 379,
      "her": 380,
      "out": 381,
      "Ġhapp": 382,
      "Ġli": 383,
      "ch": 384,
      "Ġsh": 385,
      "ly": 386,
      "ĠčĊ": 387,
      "Ġwant": 388,
      "ittle": 389,
      "ound": 390,
      "ime": 391,
      "Ġlittle": 392,
      "all": 393,
      "Ġtime": 394,
      "end": 395,
      "Ġvery": 396,
      "Ġthere": 397,
      "Ġdo": 398,
      "Ġwh": 399,
      "se": 400,
      "ome": 401,
      "Ġsm": 402,
      "ht": 403,
      "Ġre": 404,
      "al": 405,
      "Ġk": 406,
      "Ġne": 407,
      "Ġbig": 408,
      "Ġas": 409,
      "ack": 410,
      "Ġhappy": 411,
      "riend": 412,
      "Ġfriend": 413,
      "Ġnot": 414,
      "Ġbut": 415,
      "Ġsaw": 416,
      "Ġan": 417,
      "ĠM": 418,
      "One": 419,
      "ra": 420,
      ".\"": 421,
      "ry": 422,
      "'t": 423,
      "ide": 424,
      "ved": 425,
      "Once": 426,
      "!\"": 427,
      "ĠIt": 428,
      "Ġis": 429,
      "Ġloo": 430,
      "ug": 431,
      "ake": 432,
      "ter": 433,
      "ec": 434,
      "Ġwere": 435,
      "ore": 436,
      "Ġlo": 437,
      "Ġbo": 438,
      "ĠTim": 439,
      "irl": 440,
      "Ġupon": 441,
      "Ġhim": 442,
      "Ġgirl": 443,
      "Ġtoo": 444,
      "ard": 445,
      "Ġwanted": 446,
      "Ġgo": 447,
      "Ġj": 448,
      "Ġout": 449,
      "Ġse": 450,
      "Ġsmil": 451,
      "fu": 452,
      "ill": 453,
      "Ġsp": 454,
      "hen": 455,
      "way": 456,
      "Ġcould": 457,
      "ind": 458,
      "ur": 459,
      "ĠJ": 460,
      "Ġat": 461,
      "Ġex": 462,
      "ain": 463,
      "Ġthem": 464,
      "ĠA": 465,
      "round": 466,
      "Ġwent": 467,
      "hed": 468,
      "art": 469,
      "ic": 470,
      "Ġdid": 471,
      "Ġnam": 472,
      "Ġtheir": 473,
      "rom": 474,
      "hing": 475,
      "lp": 476,
      "Ġare": 477,
      "ful": 478,
      "Ġcan": 479,
      "Ġhelp": 480,
      "Ġfriends": 481,
      "um": 482,
      "?\"": 483,
      "Ġall": 484,
      "Ġhave": 485,
      "ight": 486,
      "Ġkn": 487,
      "one": 488,
      "Ã¢": 489,
      "âĤ": 490,
      "âĤ¬": 491,
      "Ġsmiled": 492,
      "ood": 493,
      "Ġback": 494,
      "ark": 495,
      "Ġnamed": 496,
      "are": 497,
      "Ġcl": 498,
      "Ġasked": 499,
      "Ġfun": 500,
      "oug": 501,
      "Ġno": 502,
      "Ġloved": 503,
      "Ġle": 504,
      "elt": 505,
      "ĠBen": 506,
      "ĠOne": 507,
      "op": 508,
      "Ġaround": 509,
      "side": 510,
      "ick": 511,
      "Ġlooked": 512,
      "Ġsc": 513,
      "get": 514,
      "Ġfelt": 515,
      "Ġal": 516,
      "ame": 517,
      "ĠTimmy": 518,
      "omet": 519,
      "Ġboy": 520,
      "Ġfe": 521,
      "You": 522,
      "ure": 523,
      "Ġbir": 524,
      "ĠTom": 525,
      "Ġman": 526,
      "Ġstart": 527,
      "Ġtoy": 528,
      "Ġro": 529,
      "Ġsee": 530,
      "Ġme": 531,
      "dd": 532,
      "ice": 533,
      "Ġlike": 534,
      "Ġbr": 535,
      "Ġwould": 536,
      "as": 537,
      "Ġsomet": 538,
      "gether": 539,
      "ong": 540,
      "Ġbird": 541,
      "Ġsome": 542,
      "ree": 543,
      "ĠW": 544,
      "Ġwor": 545,
      "king": 546,
      "Ġag": 547,
      "Ġtogether": 548,
      "Ġstarted": 549,
      "ag": 550,
      "Ġsay": 551,
      "ings": 552,
      "Ġwhat": 553,
      "ited": 554,
      "ade": 555,
      "Ġfa": 556,
      "own": 557,
      ",\"": 558,
      "Ġsomething": 559,
      "ared": 560,
      "ie": 561,
      "Ġaway": 562,
      "Ġexc": 563,
      "Ġran": 564,
      "oud": 565,
      "Ġmake": 566,
      "if": 567,
      "Ġpark": 568,
      "ble": 569,
      "hat": 570,
      "Ġmade": 571,
      "pped": 572,
      "ĠBut": 573,
      "Ġcar": 574,
      "Ġfrom": 575,
      "Ġco": 576,
      "Ġot": 577,
      "Ġwhen": 578,
      "Ġsad": 579,
      "Ġnew": 580,
      "Ġla": 581,
      "pl": 582,
      "Lily": 583,
      "Ġthen": 584,
      "ell": 585,
      "Ġpr": 586,
      "Ġagain": 587,
      "us": 588,
      "Ġother": 589,
      "Ġhome": 590,
      "Ġput": 591,
      "Ġfound": 592,
      "ally": 593,
      "Ġwal": 594,
      "ought": 595,
      "Ġfl": 596,
      "est": 597,
      "Ġwho": 598,
      "Ġexcited": 599,
      "ep": 600,
      "ust": 601,
      "ĠYou": 602,
      "Ġplaying": 603,
      "Ġhug": 604,
      "qu": 605,
      "Ġget": 606,
      "Ġdec": 607,
      "ss": 608,
      "ried": 609,
      "Ġch": 610,
      "ĠE": 611,
      "ous": 612,
      "Ġgood": 613,
      "Ġsw": 614,
      "ach": 615,
      "uch": 616,
      "ook": 617,
      "ro": 618,
      "ny": 619,
      "Ġthings": 620,
      "uck": 621,
      "Ġgot": 622,
      "Ġv": 623,
      "udd": 624,
      "ave": 625,
      "Ġcame": 626,
      "Ġevery": 627,
      "ided": 628,
      "ĠD": 629,
      "Ġdecided": 630,
      "Ġone": 631,
      "Ġbl": 632,
      "Ġbec": 633,
      "Ġdog": 634,
      "Ġscared": 635,
      "Ġdown": 636,
      "Ġliked": 637,
      "Ġthan": 638,
      "ouse": 639,
      "Ġcare": 640,
      "Ġtree": 641,
      "Ġfeel": 642,
      "bb": 643,
      "Ġsays": 644,
      "Ġfind": 645,
      "ue": 646,
      "ways": 647,
      "Ġyour": 648,
      "ax": 649,
      "Ġdad": 650,
      "Ġab": 651,
      "Ġpo": 652,
      "ara": 653,
      "ist": 654,
      "Ġalways": 655,
      "ant": 656,
      "Ġta": 657,
      "ĠF": 658,
      "Ġke": 659,
      "our": 660,
      "Ġthought": 661,
      "Ġlot": 662,
      "nder": 663,
      "Ġdidn": 664,
      "Ġkne": 665,
      "Ġabout": 666,
      "Ġgra": 667,
      "ite": 668,
      "Ġold": 669,
      "Ġtook": 670,
      "Ġint": 671,
      "Ġmy": 672,
      "udden": 673,
      "Ġlook": 674,
      "eci": 675,
      "Ġlaug": 676,
      "fe": 677,
      "ned": 678,
      "Ġho": 679,
      "Ġoutside": 680,
      "ched": 681,
      "Ġmommy": 682,
      "ise": 683,
      "ĠMom": 684,
      "ess": 685,
      "ers": 686,
      "uddenly": 687,
      "ened": 688,
      "na": 689,
      "ged": 690,
      "Ġtake": 691,
      "ecial": 692,
      "Ġspecial": 693,
      "Ġtoys": 694,
      "Ġknew": 695,
      "ap": 696,
      "Ġpe": 697,
      "Ġlear": 698,
      "Ġball": 699,
      "Ġknow": 700,
      "reat": 701,
      "ret": 702,
      "Ġmore": 703,
      "fter": 704,
      "Ġany": 705,
      "ob": 706,
      "Ġwill": 707,
      "They": 708,
      "ive": 709,
      "Ġsun": 710,
      "Ġtr": 711,
      "ma": 712,
      "Ġcat": 713,
      "Ġtw": 714,
      "Ġhow": 715,
      "ĠSam": 716,
      "ven": 717,
      "nna": 718,
      "ĠMax": 719,
      "Ġshow": 720,
      "Ġinto": 721,
      "Ġmuch": 722,
      "Ġcouldn": 723,
      "Ġsk": 724,
      "Ġen": 725,
      "Ġexpl": 726,
      "Ġmo": 727,
      "au": 728,
      "ish": 729,
      "Ġtold": 730,
      "ia": 731,
      "Ġclo": 732,
      "and": 733,
      "Ġqu": 734,
      "ge": 735,
      "ank": 736,
      "Åĵ": 737,
      "Ġthis": 738,
      "Ġif": 739,
      "Ġinside": 740,
      "Ġhand": 741,
      "Ġproud": 742,
      "Ġroom": 743,
      "Ġnever": 744,
      "Ġover": 745,
      "Ġheard": 746,
      "Ġhouse": 747,
      "But": 748,
      "Ġop": 749,
      "Ġsl": 750,
      "Ġsor": 751,
      "uc": 752,
      "other": 753,
      "Ġgave": 754,
      "ion": 755,
      "Ġpick": 756,
      "ĠEvery": 757,
      "ty": 758,
      "Ġor": 759,
      "Ġstr": 760,
      "Ġplayed": 761,
      "Ġtried": 762,
      "dy": 763,
      "ace": 764,
      "Ġrun": 765,
      "ink": 766,
      "Ġwater": 767,
      "oll": 768,
      "ause": 769,
      "Ġsmall": 770,
      "Ġjust": 771,
      "ate": 772,
      "ump": 773,
      "ĠJo": 774,
      "Ġwat": 775,
      "ĠÃ¢": 776,
      "by": 777,
      "oth": 778,
      "Ġbu": 779,
      "here": 780,
      "Ġeat": 781,
      "ough": 782,
      "ĠJack": 783,
      "Ġhugged": 784,
      "Ġcom": 785,
      "Ġsorry": 786,
      "ving": 787,
      "etter": 788,
      "'m": 789,
      "Ġcall": 790,
      "Ġbecause": 791,
      "ile": 792,
      "Ġneed": 793,
      "sed": 794,
      "iz": 795,
      "sel": 796,
      "ĠSara": 797,
      "hn": 798,
      "Ġlong": 799,
      "ild": 800,
      "Mom": 801,
      "Ġoff": 802,
      "Ġbea": 803,
      "Ġpret": 804,
      "ort": 805,
      "Ġtry": 806,
      "Ġbox": 807,
      "ning": 808,
      "ars": 809,
      "Ġnice": 810,
      "Ġeach": 811,
      "Ġflow": 812,
      "Ġunt": 813,
      "Tom": 814,
      "ine": 815,
      "Yes": 816,
      "vent": 817,
      "Ġlaughed": 818,
      "Ġad": 819,
      "Ġthanked": 820,
      "Ġuntil": 821,
      "Ġmany": 822,
      "ak": 823,
      "ady": 824,
      "Ġbeaut": 825,
      "ft": 826,
      "imal": 827,
      "ĠSo": 828,
      "Ġanimal": 829,
      "Ġdon": 830,
      "em": 831,
      "Ġbest": 832,
      "It": 833,
      "oy": 834,
      "Ġbear": 835,
      "Ġim": 836,
      "Ġend": 837,
      "ĠHer": 838,
      "Th": 839,
      "Ġeven": 840,
      "Ġkind": 841,
      "pt": 842,
      "Ġbetter": 843,
      "urt": 844,
      "Ġgr": 845,
      "Ġby": 846,
      "gry": 847,
      "Ġra": 848,
      "Ġlearned": 849,
      "urp": 850,
      "Ġgard": 851,
      "Ġgarden": 852,
      "ĠWe": 853,
      "ĠC": 854,
      "self": 855,
      "Ġfi": 856,
      "Ġdre": 857,
      "Ġbeauti": 858,
      "âĤ¬â": 859,
      "Ġlots": 860,
      "Ġbeautiful": 861,
      "ull": 862,
      "ucy": 863,
      "ber": 864,
      "Ġlived": 865,
      "ĠAnna": 866,
      "He": 867,
      "ĠHis": 868,
      "iny": 869,
      "lew": 870,
      "Ġsky": 871,
      "Ġbra": 872,
      "Ġcle": 873,
      "Ġsn": 874,
      "Ġfast": 875,
      "Ġche": 876,
      "Ġway": 877,
      "Ġcareful": 878,
      "Ġtwo": 879,
      "Ġcalled": 880,
      "ane": 881,
      "ct": 882,
      "Ħ¢": 883,
      "âĤ¬âĦ¢": 884,
      "Ġcome": 885,
      "Ġboth": 886,
      "Ġjump": 887,
      "ĠAnd": 888,
      "Ġwo": 889,
      "ase": 890,
      "ĠFrom": 891,
      "Ġstill": 892,
      "ect": 893,
      "Ġgl": 894,
      "Ġte": 895,
      "Ġlove": 896,
      "Ġar": 897,
      "Ġhard": 898,
      "ves": 899,
      "Let": 900,
      "When": 901,
      "Ġfam": 902,
      "Ġloud": 903,
      "Ġcu": 904,
      "Ġrem": 905,
      "ĠMia": 906,
      "Tim": 907,
      "Ġlist": 908,
      "Ġstay": 909,
      "What": 910,
      "igh": 911,
      "ied": 912,
      "Ġdan": 913,
      "Ġlet": 914,
      "Ġfin": 915,
      "Ġcol": 916,
      "urpr": 917,
      "ĠWhen": 918,
      "Ġunder": 919,
      "Ġwalked": 920,
      "Ġsurpr": 921,
      "Ġbrave": 922,
      "ĠThen": 923,
      "Ġflew": 924,
      "Ġsafe": 925,
      "Ġits": 926,
      "Ġanimals": 927,
      "Ġsoon": 928,
      "Ġimp": 929,
      "ool": 930,
      "Ġfly": 931,
      "Ġow": 932,
      "Ġexplore": 933,
      "hes": 934,
      "Ġhurt": 935,
      "ast": 936,
      "Ġtow": 937,
      "Ġred": 938,
      "ople": 939,
      "Ġcon": 940,
      "Ġdoll": 941,
      "fore": 942,
      "Ġgoing": 943,
      "dded": 944,
      "ised": 945,
      "Ġbad": 946,
      "ummy": 947,
      "Ġkept": 948,
      "ip": 949,
      "That": 950,
      "Ġsto": 951,
      "ished": 952,
      "Ġshould": 953,
      "Ġfamily": 954,
      "So": 955,
      "led": 956,
      "Ġnow": 957,
      "Ġground": 958,
      "Ġpic": 959,
      "ĠLucy": 960,
      "ies": 961,
      "Ġstor": 962,
      "kay": 963,
      "Ġpeople": 964,
      "ĠP": 965,
      "age": 966,
      "Ġadvent": 967,
      "Ġfore": 968,
      "ock": 969,
      "Ġfeeling": 970,
      "ĠBob": 971,
      "iced": 972,
      "Ġbefore": 973,
      "Ġcry": 974,
      "Ġrepl": 975,
      "No": 976,
      "Ġwalking": 977,
      "Ġkeep": 978,
      "Ġbook": 979,
      "xt": 980,
      "Ġdoor": 981,
      "illy": 982,
      "Ġwhile": 983,
      "eet": 984,
      "be": 985,
      "Ġwind": 986,
      "thing": 987,
      "Ġshare": 988,
      "Ġdra": 989,
      "Ġshiny": 990,
      "Ġnodded": 991,
      "Ġtur": 992,
      "Ġangry": 993,
      "Ġopened": 994,
      "hy": 995,
      "Ġide": 996,
      "ary": 997,
      "ting": 998,
      "Ġpicked": 999,
      "Ġfr": 1000,
      "Ġey": 1001,
      "Ġreplied": 1002,
      "Ġpretty": 1003,
      "Ġclean": 1004,
      "Ġwar": 1005,
      "ĠSuddenly": 1006,
      "Ġnoticed": 1007,
      "Ġstopped": 1008,
      "ger": 1009,
      "Ġnoise": 1010,
      "Ġidea": 1011,
      "Ġvo": 1012,
      "joy": 1013,
      "Ġfar": 1014,
      "Ġthr": 1015,
      "bbit": 1016,
      "Ġadventure": 1017,
      "ner": 1018,
      "Ġrock": 1019,
      "ted": 1020,
      "Ġreal": 1021,
      "ture": 1022,
      "ĠG": 1023,
      "Ġgreat": 1024,
      "Ġquick": 1025,
      "les": 1026,
      "gan": 1027,
      "Ġwr": 1028,
      "Ġlooking": 1029,
      "Ġun": 1030,
      "Ġclos": 1031,
      "Ġdis": 1032,
      "ff": 1033,
      "Ġtre": 1034,
      "Ġbed": 1035,
      "Suddenly": 1036,
      "ious": 1037,
      "Thank": 1038,
      "Ġrabbit": 1039,
      "Ġsmile": 1040,
      "Ġfo": 1041,
      "Ġpain": 1042,
      "Ġnext": 1043,
      "Ġenjoy": 1044,
      "Ġwait": 1045,
      "Ġdel": 1046,
      "imb": 1047,
      "maz": 1048,
      "Ġamaz": 1049,
      "ember": 1050,
      "Ġtruck": 1051,
      "Ġcolor": 1052,
      "Ġclimb": 1053,
      "Jo": 1054,
      "olly": 1055,
      "ĠR": 1056,
      "Ġye": 1057,
      "Ġwonder": 1058,
      "Ġma": 1059,
      "Ġpicture": 1060,
      "ange": 1061,
      "ught": 1062,
      "Ġvoice": 1063,
      "Ġeyes": 1064,
      "Ġwalk": 1065,
      "able": 1066,
      "Ġquickly": 1067,
      "ĠJohn": 1068,
      "Ġapp": 1069,
      "ac": 1070,
      "Ġhands": 1071,
      "Ġbeing": 1072,
      "Ġafter": 1073,
      "Ġright": 1074,
      "Ġmor": 1075,
      "Ġever": 1076,
      "ĠDad": 1077,
      "Ġdif": 1078,
      "irst": 1079,
      "Ġremember": 1080,
      "Ġde": 1081,
      "Ġjo": 1082,
      "Ġwatch": 1083,
      "isy": 1084,
      "Ġshout": 1085,
      "Ġwork": 1086,
      "Ġgive": 1087,
      "Ġfish": 1088,
      "Ġthree": 1089,
      "oon": 1090,
      "Ġnear": 1091,
      "Ġbro": 1092,
      "Ġforest": 1093,
      "so": 1094,
      "Ġgre": 1095,
      "Ġstrong": 1096,
      "Ġfood": 1097,
      "Ġblue": 1098,
      "Ġeveryone": 1099,
      "Ġbeen": 1100,
      "bbed": 1101,
      "Ġcloser": 1102,
      "Ġtal": 1103,
      "Ġtra": 1104,
      "Ġcuri": 1105,
      "bye": 1106,
      "Ġbecame": 1107,
      "ĠSue": 1108,
      "Ġalso": 1109,
      "Ġflowers": 1110,
      "ream": 1111,
      "ĠJane": 1112,
      "Ġimport": 1113,
      "Ġmum": 1114,
      "Ġyell": 1115,
      "Ġlisten": 1116,
      "aybe": 1117,
      "Ben": 1118,
      "Her": 1119,
      "ĠSp": 1120,
      "Ġplace": 1121,
      "Ġac": 1122,
      "ered": 1123,
      "Ġrain": 1124,
      "Ġwatched": 1125,
      "ng": 1126,
      "ĠN": 1127,
      "Ġcurious": 1128,
      "Ġshowed": 1129,
      "ollow": 1130,
      "day": 1131,
      "Ġus": 1132,
      "Ġbel": 1133,
      "ized": 1134,
      "Ġuse": 1135,
      "Ġimportant": 1136,
      "Ġsound": 1137,
      "Ġsure": 1138,
      "Ġsqu": 1139,
      "Ġhead": 1140,
      "Ġthink": 1141,
      "Ġbright": 1142,
      "Ġmag": 1143,
      "Ġwhere": 1144,
      "Ġface": 1145,
      "Ġokay": 1146,
      "aught": 1147,
      "She": 1148,
      "Ġgoodbye": 1149,
      "kes": 1150,
      "Ġchild": 1151,
      "fere": 1152,
      "ired": 1153,
      "Ġbus": 1154,
      "Ġfollow": 1155,
      "Ġhigh": 1156,
      "Ġcont": 1157,
      "Ġdiffere": 1158,
      "aisy": 1159,
      "Ġhere": 1160,
      "Ġper": 1161,
      "lease": 1162,
      "Ġstick": 1163,
      "Ġslide": 1164,
      "Look": 1165,
      "Ġfirst": 1166,
      "ila": 1167,
      "Ġhas": 1168,
      "Ġboat": 1169,
      "Sara": 1170,
      "Can": 1171,
      "lly": 1172,
      "ĠMommy": 1173,
      "Ġbit": 1174,
      "Ġwarm": 1175,
      "itc": 1176,
      "ĠAs": 1177,
      "Ġstore": 1178,
      "Ġcr": 1179,
      "uff": 1180,
      "leep": 1181,
      "Ġworld": 1182,
      "Ġhop": 1183,
      "Ġdress": 1184,
      "Ġgame": 1185,
      "Ġnight": 1186,
      "Ġbegan": 1187,
      "Ġdifferent": 1188,
      "We": 1189,
      "more": 1190,
      "Ġanymore": 1191,
      "Ġbutter": 1192,
      "Ġmean": 1193,
      "Ġbeh": 1194,
      "ached": 1195,
      "Ġask": 1196,
      "Ġopen": 1197,
      "Ġz": 1198,
      "Ġjumped": 1199,
      "ĠSpot": 1200,
      "Ġstory": 1201,
      "John": 1202,
      "nts": 1203,
      "Ġflower": 1204,
      "zy": 1205,
      "co": 1206,
      "Ġgrabbed": 1207,
      "Ġforg": 1208,
      "Ġfire": 1209,
      "Ġam": 1210,
      "Ġthrough": 1211,
      "imes": 1212,
      "Ġrest": 1213,
      "Ġsweet": 1214,
      "Ġtell": 1215,
      "Ġhappened": 1216,
      "Ġreally": 1217,
      "Ġhopped": 1218,
      "ndma": 1219,
      "Ġhelped": 1220,
      "Ġlady": 1221,
      "Ġcou": 1222,
      "ster": 1223,
      "Ġfav": 1224,
      "Ġpare": 1225,
      "Ġname": 1226,
      "After": 1227,
      "Ġru": 1228,
      "Ġpat": 1229,
      "Ġour": 1230,
      "Ġsand": 1231,
      "Ġshouted": 1232,
      "unny": 1233,
      "Ġlea": 1234,
      "Ġblock": 1235,
      "Ġfell": 1236,
      "Ġpu": 1237,
      "Ġglad": 1238,
      "Ġdraw": 1239,
      "Ġhaving": 1240,
      "Ġseen": 1241,
      "Ġtired": 1242,
      "Ġpull": 1243,
      "ĠTh": 1244,
      "Ġonly": 1245,
      "ĠLet": 1246,
      "ĠJoe": 1247,
      "Ġmouse": 1248,
      "As": 1249,
      "Ġmon": 1250,
      "Ġkitc": 1251,
      "Ġgrass": 1252,
      "Ġkitchen": 1253,
      "Ġflo": 1254,
      "Ġmagic": 1255,
      "Ġwhy": 1256,
      "ĠDaisy": 1257,
      "fully": 1258,
      "ĠSarah": 1259,
      "Mommy": 1260,
      "Ġfill": 1261,
      "Ġsoft": 1262,
      "Ġyears": 1263,
      "Ġready": 1264,
      "Ġworry": 1265,
      "Ġfro": 1266,
      "Ġreached": 1267,
      "'re": 1268,
      "Ġthing": 1269,
      "ient": 1270,
      "ater": 1271,
      "Ġbrother": 1272,
      "Ġtast": 1273,
      "Ġdone": 1274,
      "th": 1275,
      "Ġwaved": 1276,
      "\".": 1277,
      "Ġdin": 1278,
      "ued": 1279,
      "ass": 1280,
      "ken": 1281,
      "ĠEveryone": 1282,
      "Ġparents": 1283,
      "Ġcake": 1284,
      "ather": 1285,
      "ppy": 1286,
      "Ġdr": 1287,
      "Ġba": 1288,
      "ely": 1289,
      "Ġbirds": 1290,
      "Ġpond": 1291,
      "Ġfix": 1292,
      "Ġbutterf": 1293,
      "Ġhimself": 1294,
      "Don": 1295,
      "Ġsurprise": 1296,
      "Ġkid": 1297,
      "Ġcoming": 1298,
      "air": 1299,
      "where": 1300,
      "Ġbehind": 1301,
      "Ġless": 1302,
      "Ġrunning": 1303,
      "Ġprin": 1304,
      "Ġwood": 1305,
      "ins": 1306,
      "Ġstop": 1307,
      "ul": 1308,
      "iss": 1309,
      "Anna": 1310,
      "Ġbre": 1311,
      "Jack": 1312,
      "Ġ-": 1313,
      "Ġhappily": 1314,
      "Ġrealized": 1315,
      "ards": 1316,
      "Ġcreat": 1317,
      "Ġpus": 1318,
      "ĠSally": 1319,
      "Ġyummy": 1320,
      "Ġset": 1321,
      "Ġbunny": 1322,
      "Ġcook": 1323,
      "Ġworked": 1324,
      "Ġgreen": 1325,
      "Ġdark": 1326,
      "Ġste": 1327,
      "Timmy": 1328,
      "Ġfavor": 1329,
      "Wow": 1330,
      "Ġfrog": 1331,
      "Ġbug": 1332,
      "Ġperf": 1333,
      "ĠThat": 1334,
      "Ġcatch": 1335,
      "Ġsing": 1336,
      "Ġfavorite": 1337,
      "Ġate": 1338,
      "ike": 1339,
      "Ġunderst": 1340,
      "Ġdelic": 1341,
      "Ġlight": 1342,
      "Ġfunny": 1343,
      "Ġswim": 1344,
      "Ġcut": 1345,
      "mer": 1346,
      "ation": 1347,
      "Ġprom": 1348,
      "Ġdoes": 1349,
      "Ġsmell": 1350,
      "Ġyellow": 1351,
      "Ġcarefully": 1352,
      "Ġfull": 1353,
      "Ġlearn": 1354,
      "Ġmaking": 1355,
      "Ġtouch": 1356,
      "Ġused": 1357,
      "Ġpart": 1358,
      "Ġsees": 1359,
      "Ġcontin": 1360,
      "bo": 1361,
      "Ġswing": 1362,
      "Ġmess": 1363,
      "aring": 1364,
      "reed": 1365,
      "ĠCan": 1366,
      "Ġduck": 1367,
      "ign": 1368,
      "Ġlooks": 1369,
      "sh": 1370,
      "Sam": 1371,
      "Ġdro": 1372,
      "Ġanother": 1373,
      "akes": 1374,
      "Ġenjoyed": 1375,
      "rel": 1376,
      "Ġtri": 1377,
      "Ġremembered": 1378,
      "Ġarri": 1379,
      "ĠAfter": 1380,
      "Ġanything": 1381,
      "Ġslow": 1382,
      "Ġlion": 1383,
      "Ġwonderful": 1384,
      "Ġtop": 1385,
      "Ġpre": 1386,
      "Ġmove": 1387,
      "andy": 1388,
      "Ġcried": 1389,
      "Ġcold": 1390,
      "Ġtrees": 1391,
      "Ġdoing": 1392,
      "ren": 1393,
      "Ġpretend": 1394,
      "Ġwrong": 1395,
      "Ġbutterfly": 1396,
      "Ġbag": 1397,
      "Ġtall": 1398,
      "eddy": 1399,
      "Ġhat": 1400,
      "ĠDo": 1401,
      "oney": 1402,
      "Ġbuy": 1403,
      "Ġkids": 1404,
      "Hell": 1405,
      "Ġhair": 1406,
      "Ġherself": 1407,
      "Ġrel": 1408,
      "Ġhole": 1409,
      "Hello": 1410,
      "Ġbat": 1411,
      "Ġdream": 1412,
      "Ġsat": 1413,
      "Ġsho": 1414,
      "Ġspot": 1415,
      "ĠIn": 1416,
      "Ġfinished": 1417,
      "Ġmus": 1418,
      "Ġsleep": 1419,
      "Ġbuild": 1420,
      "Ġcontinued": 1421,
      "Ġhill": 1422,
      "Ġcool": 1423,
      "Ġleft": 1424,
      "Ġblocks": 1425,
      "Ġfriendly": 1426,
      "'ll": 1427,
      "Ġdri": 1428,
      "Ġmother": 1429,
      "Ġsurprised": 1430,
      "Ġarrived": 1431,
      "Ġfilled": 1432,
      "Ġpap": 1433,
      "Ġneeded": 1434,
      "Ġlesson": 1435,
      "Ġheld": 1436,
      "ey": 1437,
      "Ġhid": 1438,
      "room": 1439,
      "inally": 1440,
      "ĠEm": 1441,
      "Ġlost": 1442,
      "ined": 1443,
      "Ġwished": 1444,
      "Ġcra": 1445,
      "Ġfair": 1446,
      "Ġwindow": 1447,
      "ĠBenny": 1448,
      "Ġlaugh": 1449,
      "Ġchildren": 1450,
      "Ġthank": 1451,
      "Ġbow": 1452,
      "iver": 1453,
      "Ġgent": 1454,
      "Ġcars": 1455,
      "Ġhold": 1456,
      "Ġable": 1457,
      "ama": 1458,
      "asure": 1459,
      "ield": 1460,
      "Ġmoment": 1461,
      "Ġagreed": 1462,
      "Ġtable": 1463,
      "Ġsnow": 1464,
      "ens": 1465,
      "Ġfloor": 1466,
      "Ġread": 1467,
      "Ġair": 1468,
      "av": 1469,
      "Ġmat": 1470,
      "Ġice": 1471,
      "Ġgetting": 1472,
      "Ġmorning": 1473,
      "Ġown": 1474,
      "Ġturn": 1475,
      "Ġenough": 1476,
      "Ġclose": 1477,
      "His": 1478,
      "ĠK": 1479,
      "Ġfollowed": 1480,
      "Ġyes": 1481,
      "Ġsomeone": 1482,
      "ross": 1483,
      "Ġpoin": 1484,
      "Ġtrying": 1485,
      "cess": 1486,
      "ds": 1487,
      "ĠThere": 1488,
      "This": 1489,
      "ich": 1490,
      "astle": 1491,
      "Ġtight": 1492,
      "Ġfox": 1493,
      "From": 1494,
      "Ġmar": 1495,
      "Then": 1496,
      "ask": 1497,
      "Ġpaint": 1498,
      "ĠNow": 1499,
      "Ġdinner": 1500,
      "Ġbroken": 1501,
      "Ġdelicious": 1502,
      "Ġhun": 1503,
      "Ġstrange": 1504,
      "Ġgi": 1505,
      "oring": 1506,
      "ash": 1507,
      "Ġres": 1508,
      "Ġbrought": 1509,
      "Ġperfect": 1510,
      "gon": 1511,
      "ĠLila": 1512,
      "Ġdanc": 1513,
      "Ġgone": 1514,
      "Ġamazing": 1515,
      "Ġplease": 1516,
      "Ġfew": 1517,
      "Ġvis": 1518,
      "Ġel": 1519,
      "Ġmight": 1520,
      "app": 1521,
      "Ġhear": 1522,
      "Ġforgot": 1523,
      "Ġfinally": 1524,
      "ph": 1525,
      "ĠJen": 1526,
      "Ġwoods": 1527,
      "Ġarm": 1528,
      "ee": 1529,
      "Ġsong": 1530,
      "Ġmet": 1531,
      "Ġdeep": 1532,
      "At": 1533,
      "uffy": 1534,
      "Ġpet": 1535,
      "orn": 1536,
      "irrel": 1537,
      "ĠMolly": 1538,
      "eter": 1539,
      "Ġbeach": 1540,
      "Ġsec": 1541,
      "Ġsail": 1542,
      "ĠWhat": 1543,
      "Ġbaby": 1544,
      "Ġunderstand": 1545,
      "oup": 1546,
      "ĠGra": 1547,
      "Ġdir": 1548,
      "Ġballoon": 1549,
      "Ġleaves": 1550,
      "Ġelse": 1551,
      "Ġsquirrel": 1552,
      "Ġpaper": 1553,
      "ower": 1554,
      "Ġothers": 1555,
      "Ġtail": 1556,
      "Ġwhite": 1557,
      "Ġscary": 1558,
      "Ġcloud": 1559,
      "Ġbooks": 1560,
      "Ġsu": 1561,
      "ance": 1562,
      "Ġdaddy": 1563,
      "icy": 1564,
      "Ġroll": 1565,
      "Ġcastle": 1566,
      "Ġeverything": 1567,
      "ĠThis": 1568,
      "Ġride": 1569,
      "Ġwall": 1570,
      "Ġjoy": 1571,
      "Ġseem": 1572,
      "Ġturned": 1573,
      "immy": 1574,
      "Ġtalk": 1575,
      "Ġcount": 1576,
      "Ġbreak": 1577,
      "Ġhot": 1578,
      "Ġfight": 1579,
      "Ġwasn": 1580,
      "Ġlikes": 1581,
      "Ġgu": 1582,
      "Ġpink": 1583,
      "Ġcomp": 1584,
      "Ġcolors": 1585,
      "Ġamazed": 1586,
      "ling": 1587,
      "red": 1588,
      "ons": 1589,
      "Ġspl": 1590,
      "Ġalone": 1591,
      "der": 1592,
      "Ġpictures": 1593,
      "Ġwon": 1594,
      "Ġwaited": 1595,
      "ĠJill": 1596,
      "Ġfur": 1597,
      "ated": 1598,
      "ĠTommy": 1599,
      "ctor": 1600,
      "Max": 1601,
      "anc": 1602,
      "Ġstayed": 1603,
      "Ġflying": 1604,
      "amp": 1605,
      "Ġjob": 1606,
      "Ġspark": 1607,
      "Ġmoral": 1608,
      "Oh": 1609,
      "os": 1610,
      "Ġve": 1611,
      "Ġele": 1612,
      "ze": 1613,
      "Ġside": 1614,
      "Ġsear": 1615,
      "Ġsometimes": 1616,
      "Ġpromised": 1617,
      "Ġpen": 1618,
      "ually": 1619,
      "Ġpol": 1620,
      "Ġgrow": 1621,
      "Ġlistened": 1622,
      "ire": 1623,
      "Ġmusic": 1624,
      "Ġclimbed": 1625,
      "oom": 1626,
      "Ġpi": 1627,
      "ries": 1628,
      "Ġvisit": 1629,
      "ever": 1630,
      "Ġdanger": 1631,
      "apped": 1632,
      "lf": 1633,
      "ott": 1634,
      "Ġshared": 1635,
      "ĠAmy": 1636,
      "Ġbelie": 1637,
      "key": 1638,
      "Ġtowards": 1639,
      "Ġclot": 1640,
      "Ġhungry": 1641,
      "ix": 1642,
      "me": 1643,
      "row": 1644,
      "ĠBilly": 1645,
      "Ġhide": 1646,
      "Ġgrandma": 1647,
      "Ġclothes": 1648,
      "Ġfield": 1649,
      "ang": 1650,
      "Ġliving": 1651,
      "ucky": 1652,
      "Ġfall": 1653,
      "Ġlake": 1654,
      "Ġmakes": 1655,
      "Ġbigger": 1656,
      "Ġwet": 1657,
      "sw": 1658,
      "Ġmost": 1659,
      "thy": 1660,
      "ĠTo": 1661,
      "elc": 1662,
      "Ġstepped": 1663,
      "rew": 1664,
      "Ġslowly": 1665,
      "Ġansw": 1666,
      "avy": 1667,
      "Hi": 1668,
      "Maybe": 1669,
      "ol": 1670,
      "Ġmust": 1671,
      "man": 1672,
      "Ġwants": 1673,
      "ames": 1674,
      "Why": 1675,
      "ister": 1676,
      "cket": 1677,
      "Ġpuppy": 1678,
      "Ġdisapp": 1679,
      "Ġmagical": 1680,
      "Ġem": 1681,
      "ĠAll": 1682,
      "ope": 1683,
      "Ġdance": 1684,
      "Ġpa": 1685,
      "Ġneigh": 1686,
      "Ġsilly": 1687,
      "ained": 1688,
      "bby": 1689,
      "Ġneighb": 1690,
      "orm": 1691,
      "ĠFl": 1692,
      "bble": 1693,
      "Ġbee": 1694,
      "Ġpulled": 1695,
      "set": 1696,
      "Ġbike": 1697,
      "Ġbott": 1698,
      "igg": 1699,
      "Ġfaster": 1700,
      "gg": 1701,
      "zz": 1702,
      "Ġcream": 1703,
      "pping": 1704,
      "Ġplan": 1705,
      "ipped": 1706,
      "ud": 1707,
      "Ġsmiles": 1708,
      "Ġbar": 1709,
      "ugg": 1710,
      "Ġtreasure": 1711,
      "weet": 1712,
      "Ġatt": 1713,
      "Ġjoin": 1714,
      "Ġca": 1715,
      "ssed": 1716,
      "Ġbuck": 1717,
      "ence": 1718,
      "ateful": 1719,
      "Ġfarmer": 1720,
      "phant": 1721,
      "Ġsecret": 1722,
      "Ġblank": 1723,
      "Ġcrying": 1724,
      "eared": 1725,
      "Ġsit": 1726,
      "Ġleave": 1727,
      "Ġtrain": 1728,
      "Ġmonster": 1729,
      "Ġparty": 1730,
      "Ġheavy": 1731,
      "Ġhelping": 1732,
      "Ġworried": 1733,
      "Ġblack": 1734,
      "Ġgrateful": 1735,
      "Ġelephant": 1736,
      "ventually": 1737,
      "fort": 1738,
      "less": 1739,
      "Ġcup": 1740,
      "ment": 1741,
      "Ġblanket": 1742,
      "Ġmix": 1743,
      "Ġacross": 1744,
      "eces": 1745,
      "Ġbelieve": 1746,
      "Ġsister": 1747,
      "ear": 1748,
      "Ġwelc": 1749,
      "unch": 1750,
      "Ġreach": 1751,
      "Ġpieces": 1752,
      "Ġpro": 1753,
      "Ġdangerous": 1754,
      "Ġsuch": 1755,
      "iting": 1756,
      "Ġlon": 1757,
      "Ġshap": 1758,
      "Ġdragon": 1759,
      "Ġteddy": 1760,
      "Ġcookies": 1761,
      "ased": 1762,
      "OK": 1763,
      "Ġwear": 1764,
      "Ġje": 1765,
      "Ġland": 1766,
      "Ġdolls": 1767,
      "Ġlonely": 1768,
      "Ġgif": 1769,
      "Ġcolorful": 1770,
      "ming": 1771,
      "Ġexploring": 1772,
      "Ġbath": 1773,
      "Bob": 1774,
      "Okay": 1775,
      "Ġce": 1776,
      "pper": 1777,
      "Ġplant": 1778,
      "ĠMaybe": 1779,
      "Ġorange": 1780,
      "Ġacc": 1781,
      "br": 1782,
      "Ġtreat": 1783,
      "outh": 1784,
      "ose": 1785,
      "rot": 1786,
      "ises": 1787,
      "Ġmoney": 1788,
      "Ġrace": 1789,
      "umb": 1790,
      "Ġbroke": 1791,
      "Ġgentle": 1792,
      "iet": 1793,
      "ney": 1794,
      "Ġstuck": 1795,
      "Ġclosed": 1796,
      "Ġowl": 1797,
      "Ġyoung": 1798,
      "Ġwords": 1799,
      "ident": 1800,
      "Ġwithout": 1801,
      "Ġclapped": 1802,
      "Ġmouth": 1803,
      "Ġeverywhere": 1804,
      "Ġsame": 1805,
      "Ġstand": 1806,
      "ract": 1807,
      "Ġhig": 1808,
      "Ġnap": 1809,
      "Ġcandy": 1810,
      "Ġheal": 1811,
      "Ġsuddenly": 1812,
      "Ġriver": 1813,
      "Ġdoctor": 1814,
      "Sure": 1815,
      "Ġpot": 1816,
      "Ġju": 1817,
      "Ġdes": 1818,
      "Ġsnack": 1819,
      "Ġseemed": 1820,
      "Finally": 1821,
      "Ġhappen": 1822,
      "Ġeating": 1823,
      "Ġkite": 1824,
      "Ġbucket": 1825,
      "ored": 1826,
      "Ġteac": 1827,
      "Ġtown": 1828,
      "ĠDaddy": 1829,
      "ek": 1830,
      "uit": 1831,
      "Ġcour": 1832,
      "Ġshop": 1833,
      "Ġquiet": 1834,
      "Ġlonger": 1835,
      "Ġapple": 1836,
      "hone": 1837,
      "ts": 1838,
      "Ġpers": 1839,
      "chool": 1840,
      "fused": 1841,
      "oun": 1842,
      "Ġheart": 1843,
      "Ġsmo": 1844,
      "Ġbite": 1845,
      "Ġasks": 1846,
      "Ġprincess": 1847,
      "Ġmin": 1848,
      "itty": 1849,
      "Ġcheered": 1850,
      "Ġhigher": 1851,
      "Ġfree": 1852,
      "Ġscream": 1853,
      "Ġshoes": 1854,
      "Ġtiny": 1855,
      "Ġtoday": 1856,
      "ieved": 1857,
      "Ġthough": 1858,
      "Ġcourse": 1859,
      "Do": 1860,
      "sy": 1861,
      "Ġschool": 1862,
      "Ġswam": 1863,
      "Ġadventures": 1864,
      "Ġhoped": 1865,
      "ĠTweet": 1866,
      "Ġupset": 1867,
      "ier": 1868,
      "Ġwin": 1869,
      "Ġjour": 1870,
      "Ġbrown": 1871,
      "Ġwouldn": 1872,
      "Ġcarry": 1873,
      "Lucy": 1874,
      "Ġbring": 1875,
      "asket": 1876,
      "Ġdirty": 1877,
      "Ġbasket": 1878,
      "ions": 1879,
      "Ġowner": 1880,
      "Ġcave": 1881,
      "Ġob": 1882,
      "Ġalong": 1883,
      "Ġfruit": 1884,
      "Ġhor": 1885,
      "Ġplac": 1886,
      "ĠMr": 1887,
      "Ġpocket": 1888,
      "Ġnearby": 1889,
      "Ġaccident": 1890,
      "Ġsign": 1891,
      "Ġthrew": 1892,
      "Ġtwins": 1893,
      "Ġdrove": 1894,
      "And": 1895,
      "Ġstu": 1896,
      "Ġcolour": 1897,
      "Ġpushed": 1898,
      "Ġfairy": 1899,
      "Ġwelcome": 1900,
      "yard": 1901,
      "Ġcray": 1902,
      "Ġteacher": 1903,
      "ho": 1904,
      "Ġpower": 1905,
      "Ġspr": 1906,
      "Ġcaught": 1907,
      "Ġpie": 1908,
      "Ġbackyard": 1909,
      "Ġcoll": 1910,
      "Ġexplained": 1911,
      "Ġthinks": 1912,
      "Ġnaught": 1913,
      "Ġyear": 1914,
      "de": 1915,
      "ount": 1916,
      "Ġinst": 1917,
      "Ġpack": 1918,
      "Ġstre": 1919,
      "Ġsea": 1920,
      "ail": 1921,
      "Ġdropped": 1922,
      "ead": 1923,
      "Ġmonkey": 1924,
      "ĠEmma": 1925,
      "Ġbowl": 1926,
      "Ġ3": 1927,
      "Ġgames": 1928,
      "Ġsmart": 1929,
      "Ġexp": 1930,
      "Ġsunny": 1931,
      "Ġnaughty": 1932,
      "cle": 1933,
      "ward": 1934,
      "Ġrelieved": 1935,
      "ible": 1936,
      "Ġwings": 1937,
      "Ġlunch": 1938,
      "Ġtaking": 1939,
      "cked": 1940,
      "bow": 1941,
      "Ġcarrot": 1942,
      "Ġsoup": 1943,
      "vel": 1944,
      "Ġlaughing": 1945,
      "Ġtower": 1946,
      "ĠFluffy": 1947,
      "pe": 1948,
      "Ġdry": 1949,
      "Ġyard": 1950,
      "Ġswings": 1951,
      "Ġmoved": 1952,
      "Ġwoke": 1953,
      "Ġboun": 1954,
      "adow": 1955,
      "Ġrainbow": 1956,
      "Ġbelong": 1957,
      "Ġlate": 1958,
      "Ġdist": 1959,
      "Lila": 1960,
      "Ġwell": 1961,
      "Ġlife": 1962,
      "Ġvill": 1963,
      "Ġes": 1964,
      "Ġcor": 1965,
      "Ġmine": 1966,
      "Ġforget": 1967,
      "ush": 1968,
      "Ġpres": 1969,
      "Mia": 1970,
      "orrow": 1971,
      "vered": 1972,
      "Ġstars": 1973,
      "Ġshook": 1974,
      "Ġnothing": 1975,
      "Ġwish": 1976,
      "ĠJimmy": 1977,
      "Molly": 1978,
      "uched": 1979,
      "ining": 1980,
      "Ġtouched": 1981,
      "Ġmark": 1982,
      "ung": 1983,
      "Ġtrou": 1984,
      "Ġpast": 1985,
      "itting": 1986,
      "ĠMama": 1987,
      "ocked": 1988,
      "Ġwise": 1989,
      "Ġbush": 1990,
      "Ġbusy": 1991,
      "Ġben": 1992,
      "Ġspoon": 1993,
      "Ġmyster": 1994,
      "ĠSoon": 1995,
      "Ġmail": 1996,
      "Ġrocks": 1997,
      "aur": 1998,
      "Ġsang": 1999,
      "Ġexciting": 2000,
      "Ġgigg": 2001,
      "Ġruns": 2002,
      "Later": 2003,
      "la": 2004,
      "Ġpath": 2005,
      "Ġbreat": 2006,
      "Ġinv": 2007,
      "ize": 2008,
      "Ġthrow": 2009,
      "ountain": 2010,
      "gged": 2011,
      "issed": 2012,
      "Ġleg": 2013,
      "ÅĵI": 2014,
      "Ġpresent": 2015,
      "Ġcir": 2016,
      "Ġsmiling": 2017,
      "Ġpeace": 2018,
      "Ġresp": 2019,
      "ĠGrandma": 2020,
      "Ġneighbor": 2021,
      "ped": 2022,
      "tur": 2023,
      "Ġbutt": 2024,
      "Ġnoises": 2025,
      "Ġcozy": 2026,
      "Ġsick": 2027,
      "Ġmiss": 2028,
      "Ġinc": 2029,
      "ĠMary": 2030,
      "aughter": 2031,
      "rest": 2032,
      "Ġdays": 2033,
      "Ġshapes": 2034,
      "Ġwhist": 2035,
      "Ġretur": 2036,
      "Ġcreature": 2037,
      "Ġsinging": 2038,
      "ĠInside": 2039,
      "Ġholding": 2040,
      "irt": 2041,
      "Ġeas": 2042,
      "Ġlift": 2043,
      "Ġwatching": 2044,
      "Ġtasted": 2045,
      "Ġswimming": 2046,
      "Ġpudd": 2047,
      "Ġchair": 2048,
      "Ġfeels": 2049,
      "Ġdelight": 2050,
      "erest": 2051,
      "ndp": 2052,
      "Ġhit": 2053,
      "anch": 2054,
      "itten": 2055,
      "Ġneck": 2056,
      "Ġbranch": 2057,
      "Ġinterest": 2058,
      "ĠSammy": 2059,
      "shine": 2060,
      "Ġjourney": 2061,
      "Ġsur": 2062,
      "Ġwhe": 2063,
      "read": 2064,
      "llo": 2065,
      "Ġdrink": 2066,
      "Ġaf": 2067,
      "board": 2068,
      "alm": 2069,
      "Ġrob": 2070,
      "Ġsunshine": 2071,
      "Tommy": 2072,
      "Ġdisco": 2073,
      "thday": 2074,
      "Ġturns": 2075,
      "Mum": 2076,
      "to": 2077,
      "Ġhuge": 2078,
      "Ġwondered": 2079,
      "Ġpatient": 2080,
      "Ġpointed": 2081,
      "Ġdanced": 2082,
      "Ġeag": 2083,
      "Ġcute": 2084,
      "Ġhorse": 2085,
      "Ġrobot": 2086,
      "Of": 2087,
      "Ġletter": 2088,
      "Ġpig": 2089,
      "Ġnest": 2090,
      "Ġnose": 2091,
      "Ġkey": 2092,
      "Ġimag": 2093,
      "ness": 2094,
      "Ġsitting": 2095,
      "Ġfit": 2096,
      "Ġpract": 2097,
      "Ġjuice": 2098,
      "fish": 2099,
      "Ġbought": 2100,
      "idge": 2101,
      "Ġround": 2102,
      "epend": 2103,
      "Ġhugs": 2104,
      "Hey": 2105,
      "Ġclouds": 2106,
      "Ġtom": 2107,
      "Ġdaughter": 2108,
      "Ġear": 2109,
      "Ġcraw": 2110,
      "Ġgift": 2111,
      "amed": 2112,
      "Ġshr": 2113,
      "Ġact": 2114,
      "Ġpurp": 2115,
      "Ġspo": 2116,
      "Ġbottle": 2117,
      "ove": 2118,
      "Ġent": 2119,
      "Ġbur": 2120,
      "Ġpass": 2121,
      "Ġbirthday": 2122,
      "Ġanyone": 2123,
      "Ġaccidentally": 2124,
      "lice": 2125,
      "Ġfence": 2126,
      "Ġcard": 2127,
      "Ġsack": 2128,
      "Ġonto": 2129,
      "raid": 2130,
      "Ġorgan": 2131,
      "Ġcomes": 2132,
      "izz": 2133,
      "Ġvillage": 2134,
      "Come": 2135,
      "itch": 2136,
      "ert": 2137,
      "Ġadm": 2138,
      "Ġsounds": 2139,
      "Ġarms": 2140,
      "Ġafraid": 2141,
      "Just": 2142,
      "ittens": 2143,
      "ĠEmily": 2144,
      "Ġpiece": 2145,
      "een": 2146,
      "Ġmist": 2147,
      "ont": 2148,
      "let": 2149,
      "Ġspin": 2150,
      "Ġspid": 2151,
      "Ġlovely": 2152,
      "Ġforever": 2153,
      "ndpa": 2154,
      "Ġinteresting": 2155,
      "ĠFinally": 2156,
      "Ġfront": 2157,
      "Ġinstead": 2158,
      "og": 2159,
      "Ġtun": 2160,
      "ity": 2161,
      "Ġwhich": 2162,
      "Ġjar": 2163,
      "Ġcho": 2164,
      "Ġquest": 2165,
      "ĠCome": 2166,
      "Ġsnowman": 2167,
      "Ġminut": 2168,
      "Ġcollect": 2169,
      "Ġstreet": 2170,
      "Ġphone": 2171,
      "Ġcoin": 2172,
      "Ġdriver": 2173,
      "ĠJenny": 2174,
      "Ġbench": 2175,
      "Ġpurple": 2176,
      "My": 2177,
      "obby": 2178,
      "Ġ'": 2179,
      "Ġbal": 2180,
      "Ġthin": 2181,
      "Ġstories": 2182,
      "Ġap": 2183,
      "Ġlad": 2184,
      "Ġlucky": 2185,
      "Ġmad": 2186,
      "lebr": 2187,
      "oose": 2188,
      "blem": 2189,
      "Ġbuilding": 2190,
      "ced": 2191,
      "sp": 2192,
      "Ġsuc": 2193,
      "Ġeventually": 2194,
      "Ġmeet": 2195,
      "Ġproblem": 2196,
      "Ġcelebr": 2197,
      "Ġhello": 2198,
      "Ġpool": 2199,
      "arge": 2200,
      "Ġband": 2201,
      "Ġgather": 2202,
      "ord": 2203,
      "eth": 2204,
      "Ġshining": 2205,
      "ĠJake": 2206,
      "Ġgrab": 2207,
      "ĠThank": 2208,
      "Ġrolled": 2209,
      "Now": 2210,
      "nic": 2211,
      "unt": 2212,
      "Ġpicnic": 2213,
      "col": 2214,
      "Ġspotted": 2215,
      "Ġsearch": 2216,
      "fortable": 2217,
      "Ġladder": 2218,
      "Ġwra": 2219,
      "Ġwild": 2220,
      "cean": 2221,
      "Ġspent": 2222,
      "Ġspicy": 2223,
      "Ġwhole": 2224,
      "ĠCh": 2225,
      "Ġfold": 2226,
      "Good": 2227,
      "Ġocean": 2228,
      "Ġappeared": 2229,
      "Ġperson": 2230,
      "Ġhoney": 2231,
      "Ġwearing": 2232,
      "Ġkick": 2233,
      "Ġash": 2234,
      "Ġtasty": 2235,
      "Ġsmelled": 2236,
      "Ġsearched": 2237,
      "Ġanswer": 2238,
      "ten": 2239,
      "Ġshy": 2240,
      "Ġtalked": 2241,
      "Ġhealthy": 2242,
      "Ġcrayons": 2243,
      "In": 2244,
      "Ġasleep": 2245,
      "Ġclever": 2246,
      "Ġsandw": 2247,
      "Ġplaces": 2248,
      "Ġlater": 2249,
      "Ġsaf": 2250,
      "Ġbubble": 2251,
      "Ġtalking": 2252,
      "ces": 2253,
      "hile": 2254,
      "Ġlarge": 2255,
      "Ġmach": 2256,
      "Ġcorner": 2257,
      "ond": 2258,
      "ĠWith": 2259,
      "Ġhar": 2260,
      "Ġstar": 2261,
      "Ġremind": 2262,
      "Ġconfused": 2263,
      "Ġemb": 2264,
      "per": 2265,
      "Ġnut": 2266,
      "ird": 2267,
      "Ġsol": 2268,
      "Ġkitten": 2269,
      "Ġhope": 2270,
      "Ġsplas": 2271,
      "Ġsmooth": 2272,
      "nn": 2273,
      "ometimes": 2274,
      "ours": 2275,
      "Ġapples": 2276,
      "ball": 2277,
      "Ġfing": 2278,
      "Ġlay": 2279,
      "Ġhelpful": 2280,
      "Ġprot": 2281,
      "Ġfarm": 2282,
      "Ġtrip": 2283,
      "inted": 2284,
      "ese": 2285,
      "Ġfeather": 2286,
      "Ġwaiting": 2287,
      "Ġpush": 2288,
      "Ġscreamed": 2289,
      "old": 2290,
      "Ġser": 2291,
      "Ġoven": 2292,
      "arra": 2293,
      "ete": 2294,
      "Ġval": 2295,
      "Ġwrite": 2296,
      "Ġbugs": 2297,
      "Ġembarra": 2298,
      "Ġblew": 2299,
      "Ġcow": 2300,
      "Ġegg": 2301,
      "Ġplane": 2302,
      "Ġrec": 2303,
      "Ġfinish": 2304,
      "Ġrocket": 2305,
      "ular": 2306,
      "Ġpuddle": 2307,
      "Ġspider": 2308,
      "den": 2309,
      "Ġwide": 2310,
      "Ġstone": 2311,
      "Ġteach": 2312,
      "Ġpill": 2313,
      "Ġwhenever": 2314,
      "usie": 2315,
      "Ġdisappo": 2316,
      "Ġmysterious": 2317,
      "Ġrespect": 2318,
      "Ġprotect": 2319,
      "aw": 2320,
      "Ġign": 2321,
      "Ġpile": 2322,
      "Ġchest": 2323,
      "Ġstorm": 2324,
      "Ġzoom": 2325,
      "ĠTogether": 2326,
      "Jane": 2327,
      "Ġcalm": 2328,
      "Ġforward": 2329,
      "Ġducks": 2330,
      "Ġgently": 2331,
      "Ġmatter": 2332,
      "Ġfurry": 2333,
      "ancy": 2334,
      "Every": 2335,
      "ĠO": 2336,
      "els": 2337,
      "ĠJust": 2338,
      "Ġgroup": 2339,
      "Ġpuzz": 2340,
      "airs": 2341,
      "eterm": 2342,
      "ground": 2343,
      "erly": 2344,
      "Ġdeterm": 2345,
      "Ġlem": 2346,
      "Ġtakes": 2347,
      "Ġimpre": 2348,
      "Ġfoot": 2349,
      "Ġcouch": 2350,
      "Ġnet": 2351,
      "Ġking": 2352,
      "Ġfeet": 2353,
      "Ġseek": 2354,
      "Ġcarried": 2355,
      "Ġfixed": 2356,
      "ĠKitty": 2357,
      "Ġtrouble": 2358,
      "ult": 2359,
      "Ġdrive": 2360,
      "Ġbreath": 2361,
      "Ġwave": 2362,
      "Ġmil": 2363,
      "Ġmind": 2364,
      "Ġshirt": 2365,
      "Ġhidden": 2366,
      "Mama": 2367,
      "Ġspe": 2368,
      "Ġcheese": 2369,
      "ĠRe": 2370,
      "Ġpowerful": 2371,
      "St": 2372,
      "cer": 2373,
      "Ġpizz": 2374,
      "Ġkiss": 2375,
      "Ġyelled": 2376,
      "Ġdisappointed": 2377,
      "eb": 2378,
      "Ġcheer": 2379,
      "Ġtaste": 2380,
      "Ġemp": 2381,
      "ale": 2382,
      "Ġfig": 2383,
      "Ġmot": 2384,
      "Ġpar": 2385,
      "Ġstood": 2386,
      "Ġstep": 2387,
      "Ġspread": 2388,
      "Ġmeadow": 2389,
      "Ġstanding": 2390,
      "Ġembarrassed": 2391,
      "Ġfancy": 2392,
      "Ġmed": 2393,
      "arp": 2394,
      "Ġgas": 2395,
      "ĠSome": 2396,
      "lex": 2397,
      "Ġsharp": 2398,
      "Ġlast": 2399,
      "ĠJohnny": 2400,
      "Ġempty": 2401,
      "Ġber": 2402,
      "isa": 2403,
      "owed": 2404,
      "getable": 2405,
      "Ġsleepy": 2406,
      "up": 2407,
      "Ġhon": 2408,
      "Ġpop": 2409,
      "Ġbell": 2410,
      "Ġlaw": 2411,
      "Ġstring": 2412,
      "Ġgrew": 2413,
      "Ġsongs": 2414,
      "Ġvegetable": 2415,
      "aking": 2416,
      "vous": 2417,
      "ĠSt": 2418,
      "Ġstir": 2419,
      "Ġshell": 2420,
      "?\".": 2421,
      "Ġpromise": 2422,
      "Ġpretended": 2423,
      "Ġdancing": 2424,
      "ife": 2425,
      "ĠEverywhere": 2426,
      "Ġpizza": 2427,
      "Where": 2428,
      "dle": 2429,
      "Ġsour": 2430,
      "Ġdi": 2431,
      "Ġmummy": 2432,
      "Ġgar": 2433,
      "Ġsal": 2434,
      "Ġloves": 2435,
      "Ġroad": 2436,
      "Ġcoat": 2437,
      "hin": 2438,
      "Ġple": 2439,
      "ĠTV": 2440,
      "ors": 2441,
      "ĠBe": 2442,
      "urse": 2443,
      "Ġhopping": 2444,
      "ungle": 2445,
      "Ġmilk": 2446,
      "'d": 2447,
      "Jimmy": 2448,
      "als": 2449,
      "Ġjungle": 2450,
      "Ġblow": 2451,
      "Ġsnake": 2452,
      "Ġtightly": 2453,
      "Ġmachine": 2454,
      "cap": 2455,
      "ym": 2456,
      "Ġwash": 2457,
      "ato": 2458,
      "Ġstra": 2459,
      "Ġseat": 2460,
      "Ġexam": 2461,
      "ĠEven": 2462,
      "Soon": 2463,
      "Ġbread": 2464,
      "Ġhiding": 2465,
      "Ġpeaceful": 2466,
      "Ġwip": 2467,
      "Ġner": 2468,
      "ĠSometimes": 2469,
      "osaur": 2470,
      "Ġmotor": 2471,
      "Ġsel": 2472,
      "Sarah": 2473,
      "Ġgives": 2474,
      "Ġdirt": 2475,
      "Ġtid": 2476,
      "Ġban": 2477,
      "era": 2478,
      "Ġmountain": 2479,
      "Ġlive": 2480,
      "Ġbecome": 2481,
      "Ġjew": 2482,
      "Ġnervous": 2483,
      "Mummy": 2484,
      "gly": 2485,
      "Ġhur": 2486,
      "Ġfil": 2487,
      "Ġcoo": 2488,
      "Ġmu": 2489,
      "Ġmud": 2490,
      "Ġugly": 2491,
      "ighed": 2492,
      "Ġvase": 2493,
      "Ġtrust": 2494,
      "Ġslid": 2495,
      "Ġforgive": 2496,
      "Ġrude": 2497,
      "Ġsupp": 2498,
      "Ġsparkly": 2499,
      "Ġpolite": 2500,
      "cles": 2501,
      "Ġmic": 2502,
      "Ġplayground": 2503,
      "Ġflut": 2504,
      "Ġjumping": 2505,
      "box": 2506,
      "Ġmatch": 2507,
      "Ġgarage": 2508,
      "Please": 2509,
      "mo": 2510,
      "ual": 2511,
      "ying": 2512,
      "Ġhours": 2513,
      "Ġcap": 2514,
      "oman": 2515,
      "Ġrope": 2516,
      "aser": 2517,
      "Ġdinosaur": 2518,
      "Ġcreative": 2519,
      "Ġcookie": 2520,
      "Ġfighting": 2521,
      "Ġsuccess": 2522,
      "Ġwoman": 2523,
      "Ġchick": 2524,
      "Ġsticks": 2525,
      "Ġwhistle": 2526,
      "Ġdetermined": 2527,
      "Ġthese": 2528,
      "Ġgen": 2529,
      "cks": 2530,
      "Ġreg": 2531,
      "ĠMittens": 2532,
      "Ġdecor": 2533,
      "izzy": 2534,
      "ĠPete": 2535,
      "Ġanswered": 2536,
      "Ġtomorrow": 2537,
      "Ġhum": 2538,
      "Ġpri": 2539,
      "Ġasking": 2540,
      "Ġchased": 2541,
      "Ġlemon": 2542,
      "Ġselfish": 2543,
      "ĠOn": 2544,
      "iddle": 2545,
      "Ġsave": 2546,
      "Ġstret": 2547,
      "Ġknocked": 2548,
      "Ġfaces": 2549,
      "Ġchew": 2550,
      "Ġminutes": 2551,
      "Dad": 2552,
      "To": 2553,
      "Ġbark": 2554,
      "Ġcart": 2555,
      "ones": 2556,
      "cept": 2557,
      "Ġspray": 2558,
      "Ġeasy": 2559,
      "Ġashamed": 2560,
      "Ġweak": 2561,
      "Ġknee": 2562,
      "Ġskipped": 2563,
      "Ġbedroom": 2564,
      "Ġpaw": 2565,
      "Ġbalance": 2566,
      "Jill": 2567,
      "ipper": 2568,
      "anut": 2569,
      "Ġshelf": 2570,
      "Ġsharing": 2571,
      "Ġflag": 2572,
      "Ġdrew": 2573,
      "Ġbarked": 2574,
      "Ġplants": 2575,
      "fl": 2576,
      "Ġtest": 2577,
      "Ġpour": 2578,
      "Ġship": 2579,
      "Ġwhis": 2580,
      "Ġjoke": 2581,
      "Ġsplash": 2582,
      "Ġreturned": 2583,
      "Ġpin": 2584,
      "ĠSusie": 2585,
      "ana": 2586,
      "ĠHow": 2587,
      "Ġshore": 2588,
      "umber": 2589,
      "Ġexcite": 2590,
      "Ġknowing": 2591,
      "ĠPeter": 2592,
      "Ġpainting": 2593,
      "Ġpolice": 2594,
      "most": 2595,
      "Be": 2596,
      "light": 2597,
      "ina": 2598,
      "Ġhears": 2599,
      "Ġroar": 2600,
      "Ġswan": 2601,
      "Ġyourself": 2602,
      "Ġgray": 2603,
      "Ġtears": 2604,
      "Ġlanded": 2605,
      "Ġbutton": 2606,
      "Ġchocol": 2607,
      "Ġpas": 2608,
      "itter": 2609,
      "ĠJim": 2610,
      "Ġalmost": 2611,
      "Ġmeant": 2612,
      "Ġtrue": 2613,
      "Ġteeth": 2614,
      "Ġmarble": 2615,
      "Ġgiant": 2616,
      "Ġneckl": 2617,
      "Ġexcitement": 2618,
      "Ġpassed": 2619,
      "Ġwore": 2620,
      "ital": 2621,
      "Ġmiddle": 2622,
      "There": 2623,
      "Ġgoes": 2624,
      "Ġdogs": 2625,
      "Ġhosp": 2626,
      "Joe": 2627,
      "Ġdisappeared": 2628,
      "Ġgiggled": 2629,
      "Ġfather": 2630,
      "Ġline": 2631,
      "Ġcand": 2632,
      "Ġdepend": 2633,
      "Ġplate": 2634,
      "ĠMum": 2635,
      "Ġclown": 2636,
      "umpy": 2637,
      "Ġtea": 2638,
      "Ġunderstood": 2639,
      "Ġgener": 2640,
      "Ġhospital": 2641,
      "ination": 2642,
      "Ġmaybe": 2643,
      "Ġhang": 2644,
      "ĠMummy": 2645,
      "Ġfluffy": 2646,
      "Ġsnacks": 2647,
      "Ġcolourful": 2648,
      "Ġmarket": 2649,
      "Ġchocolate": 2650,
      "pack": 2651,
      "Ġant": 2652,
      "Ġmissed": 2653,
      "ating": 2654,
      "ĠTheir": 2655,
      "Ġweek": 2656,
      "Ġlead": 2657,
      "ushed": 2658,
      "usual": 2659,
      "Ġunusual": 2660,
      "Ġtreats": 2661,
      "Sally": 2662,
      "Sue": 2663,
      "ls": 2664,
      "Ġed": 2665,
      "Ġhel": 2666,
      "lla": 2667,
      "ĠLe": 2668,
      "illi": 2669,
      "Ġknight": 2670,
      "Ġglue": 2671,
      "ĠGo": 2672,
      "Ġcrack": 2673,
      "Ġtells": 2674,
      "ĠTweety": 2675,
      "Ġtidy": 2676,
      "Ġgenerous": 2677,
      "cy": 2678,
      "uce": 2679,
      "Ġwander": 2680,
      "Ġwagon": 2681,
      "ĠBobby": 2682,
      "Ġang": 2683,
      "Ġfeed": 2684,
      "Ġfear": 2685,
      "elly": 2686,
      "ĠDon": 2687,
      "Ġtaken": 2688,
      "Ġzoo": 2689,
      "ensive": 2690,
      "Ġmarch": 2691,
      "Ġsailed": 2692,
      "Ġbathroom": 2693,
      "Ġexpensive": 2694,
      "Ġgathered": 2695,
      "Ġfigure": 2696,
      "port": 2697,
      "Ġter": 2698,
      "Ġtank": 2699,
      "Ġwagged": 2700,
      "Ġcage": 2701,
      "Ġcross": 2702,
      "Ġrid": 2703,
      "Ġoften": 2704,
      "Ġboard": 2705,
      "ÅĵLet": 2706,
      "Ġhappening": 2707,
      "cape": 2708,
      "Gra": 2709,
      "ub": 2710,
      "Ġtag": 2711,
      "Ġpir": 2712,
      "arl": 2713,
      "imp": 2714,
      "Ġthick": 2715,
      "Ġstuff": 2716,
      "alous": 2717,
      "Ġpoor": 2718,
      "Ġcalling": 2719,
      "Ġpenny": 2720,
      "Ġjealous": 2721,
      "Ġspoil": 2722,
      "Ġsandwich": 2723,
      "Ġnecklace": 2724,
      "Ġav": 2725,
      "Ġadd": 2726,
      "Ġnods": 2727,
      "Ġmanag": 2728,
      "Ġworm": 2729,
      "Ġpeanut": 2730,
      "Ġtwirl": 2731,
      "Ġfrown": 2732,
      "Ġdrawing": 2733,
      "Ġthankful": 2734,
      "Ġpointing": 2735,
      "Stop": 2736,
      "Ġdependable": 2737,
      "ches": 2738,
      "Ġcop": 2739,
      "ari": 2740,
      "Ġsaved": 2741,
      "ĠLisa": 2742,
      "unk": 2743,
      "ĠAnn": 2744,
      "que": 2745,
      "Ġtaught": 2746,
      "ĠPlease": 2747,
      "Ġleaf": 2748,
      "Ġsmelly": 2749,
      "Ġpillow": 2750,
      "Ġsil": 2751,
      "Ġwaves": 2752,
      "Ġfake": 2753,
      "erp": 2754,
      "Ġok": 2755,
      "Ġanc": 2756,
      "Ġlock": 2757,
      "ĠAt": 2758,
      "Ġcloth": 2759,
      "Ġscr": 2760,
      "Ġmeasure": 2761,
      "ecially": 2762,
      "Ġmod": 2763,
      "Ġmoon": 2764,
      "Ġbull": 2765,
      "Ġcontent": 2766,
      "Ġcrab": 2767,
      "Ġtunn": 2768,
      "Ġpuzzle": 2769,
      "Ġterri": 2770,
      "pecially": 2771,
      "Ġcri": 2772,
      "Ġdest": 2773,
      "Ġcovered": 2774,
      "ÅĵThat": 2775,
      "Ġrealised": 2776,
      "Ġdrum": 2777,
      "Ġespecially": 2778,
      "Ġancient": 2779,
      "Ġbone": 2780,
      "Ġlit": 2781,
      "imed": 2782,
      "Ġweal": 2783,
      "Ġclap": 2784,
      "ĠWhy": 2785,
      "Ġworking": 2786,
      "iff": 2787,
      "ĠEnd": 2788,
      "Ġtowel": 2789,
      "Ġvegetables": 2790,
      "Amy": 2791,
      "rated": 2792,
      "Ġtent": 2793,
      "Ġsight": 2794,
      "iger": 2795,
      "Ġlog": 2796,
      "Ġgoat": 2797,
      "Ġgold": 2798,
      "ured": 2799,
      "Ġclass": 2800,
      "Ġqueen": 2801,
      "Ġmessy": 2802,
      "Ġjewel": 2803,
      "Ġer": 2804,
      "ĠTeddy": 2805,
      "Ġring": 2806,
      "Ġstones": 2807,
      "Ġfork": 2808,
      "Ġscar": 2809,
      "Ġbrush": 2810,
      "ief": 2811,
      "Ġlazy": 2812,
      "Ġmoving": 2813,
      "selves": 2814,
      "Ġwalks": 2815,
      "Ġdistance": 2816,
      "Ġincred": 2817,
      "Ġhonest": 2818,
      "Billy": 2819,
      "Em": 2820,
      "Who": 2821,
      "not": 2822,
      "oe": 2823,
      "ror": 2824,
      "Ġwis": 2825,
      "Ġboring": 2826,
      "Ġmir": 2827,
      "Ġjam": 2828,
      "ella": 2829,
      "Ġchange": 2830,
      "Ġstronger": 2831,
      "Ġsweetie": 2832,
      "Ġruined": 2833,
      "Ġperform": 2834,
      "Ġwheel": 2835,
      "illiant": 2836,
      "aby": 2837,
      "gy": 2838,
      "iness": 2839,
      "Ġbored": 2840,
      "reen": 2841,
      "Ġlying": 2842,
      "ilt": 2843,
      "orge": 2844,
      "ots": 2845,
      "Ġrough": 2846,
      "Ġsold": 2847,
      "ĠLittle": 2848,
      "ĠBr": 2849,
      "ĠMar": 2850,
      "Ġcannot": 2851,
      "Ġclay": 2852,
      "Ġbrilliant": 2853,
      "Ġgrace": 2854,
      "ÅĵIt": 2855,
      "Ġpicking": 2856,
      "Ġcheck": 2857,
      "ĠMrs": 2858,
      "Ġharm": 2859,
      "Ġsplashed": 2860,
      "Ġpleased": 2861,
      "Ġtick": 2862,
      "edient": 2863,
      "Ġcher": 2864,
      "Ġdish": 2865,
      "arn": 2866,
      "Ġgun": 2867,
      "Ġrad": 2868,
      "Ġboss": 2869,
      "ested": 2870,
      "ustrated": 2871,
      "Ġpee": 2872,
      "Ġdrank": 2873,
      "Ġedge": 2874,
      "Jen": 2875,
      "Well": 2876,
      "now": 2877,
      "ory": 2878,
      "Ġyarn": 2879,
      "Ġsoap": 2880,
      "Ġsmaller": 2881,
      "Ġglow": 2882,
      "Ġdeer": 2883,
      "Ġeager": 2884,
      "Ġquestions": 2885,
      "fic": 2886,
      "land": 2887,
      "ti": 2888,
      "Ġhorn": 2889,
      "orry": 2890,
      "Ġones": 2891,
      "illed": 2892,
      "Ġpray": 2893,
      "Ġcaterp": 2894,
      "Ġord": 2895,
      "Ġcomfortable": 2896,
      "ctus": 2897,
      "Ġfrustrated": 2898,
      "Ġtrucks": 2899,
      "Ġaccept": 2900,
      "Ġzip": 2901,
      "Ġmighty": 2902,
      "Ġobedient": 2903,
      "Ġcircles": 2904,
      "Ġdiscovered": 2905,
      "Ġmedic": 2906,
      "Ġcaterpill": 2907,
      "ipp": 2908,
      "ject": 2909,
      "Ġpil": 2910,
      "ork": 2911,
      "oof": 2912,
      "Ġexcitedly": 2913,
      "Ġtape": 2914,
      "ÅĵYes": 2915,
      "ÅĵWhat": 2916,
      "Ġenjoying": 2917,
      "Ġcrown": 2918,
      "Ġdesk": 2919,
      "Ġlegs": 2920,
      "Ġmanaged": 2921,
      "Ġmedicine": 2922,
      "How": 2923,
      "bin": 2924,
      "eorge": 2925,
      "Ġsighed": 2926,
      "Ġcam": 2927,
      "Ġonce": 2928,
      "Their": 2929,
      "!\".": 2930,
      "Ġspend": 2931,
      "asing": 2932,
      "Ġexcla": 2933,
      "Ġclear": 2934,
      "Ġadventur": 2935,
      "Ġpainted": 2936,
      "Ġdiffic": 2937,
      "Ġtries": 2938,
      "Ġrelax": 2939,
      "Ġcactus": 2940,
      "Ġcabin": 2941,
      "Ġpacked": 2942,
      "Ġcarrots": 2943,
      "Ġbelonged": 2944,
      "Ġdelighted": 2945,
      "Ġangel": 2946,
      "Ġtunnel": 2947,
      "Ġterrible": 2948,
      "Ġwealthy": 2949,
      "Ġincredible": 2950,
      "Ġcaterpillar": 2951,
      "Ġexclaimed": 2952,
      "hip": 2953,
      "kin": 2954,
      "mb": 2955,
      "ps": 2956,
      "ĠZ": 2957,
      "ately": 2958,
      "ony": 2959,
      "Ġputs": 2960,
      "Ġchoose": 2961,
      "uddy": 2962,
      "ĠDucky": 2963,
      "oby": 2964,
      "Ġneeds": 2965,
      "Ġeye": 2966,
      "Ġusing": 2967,
      "Ġbushes": 2968,
      "eez": 2969,
      "Ġorganized": 2970,
      "Ġsafely": 2971,
      "ĠLeo": 2972,
      "Ġeraser": 2973,
      "Ġmirror": 2974,
      "Ġadventurous": 2975,
      "ique": 2976,
      "Ġdizzy": 2977,
      "ator": 2978,
      "ano": 2979,
      "Ġrat": 2980,
      "ĠAlice": 2981,
      "umsy": 2982,
      "Ġcarp": 2983,
      "Ġflash": 2984,
      "Ġunique": 2985,
      "ache": 2986,
      "Ġsquare": 2987,
      "Ġdrop": 2988,
      "Ġprint": 2989,
      "Ġmistake": 2990,
      "Ġscarf": 2991,
      "Ġcamera": 2992,
      "Ġdifficult": 2993,
      "vice": 2994,
      "Ġsugg": 2995,
      "keep": 2996,
      "Ġbody": 2997,
      "Ġseed": 2998,
      "Ġgrumpy": 2999,
      "Ġturkey": 3000,
      "Ġfridge": 3001,
      "Ġjog": 3002,
      "Ġwalls": 3003,
      "Ġcrawled": 3004,
      "Ġimpressed": 3005,
      "Me": 3006,
      "und": 3007,
      "uable": 3008,
      "ature": 3009,
      "Ġbridge": 3010,
      "ages": 3011,
      "Ġcoins": 3012,
      "ĠFr": 3013,
      "Ġpebble": 3014,
      "Ġtrop": 3015,
      "Ġenvel": 3016,
      "ĠCl": 3017,
      "Ġbrightly": 3018,
      "Ġprep": 3019,
      "umbled": 3020,
      "Ġstudy": 3021,
      "ÅĵLetÃ¢": 3022,
      "keeper": 3023,
      "ha": 3024,
      "loo": 3025,
      "uz": 3026,
      "work": 3027,
      "head": 3028,
      "Ġaw": 3029,
      "Ġbitter": 3030,
      "ready": 3031,
      "ery": 3032,
      "Ġbees": 3033,
      "Ġweird": 3034,
      "Ġdolp": 3035,
      "Ġalready": 3036,
      "Ġword": 3037,
      "Ġabove": 3038,
      "Ġcleaned": 3039,
      "Ġdead": 3040,
      "ĠTweetie": 3041,
      "Ġfinger": 3042,
      "Ġvaluable": 3043,
      "Are": 3044,
      "Ġadded": 3045,
      "Ġoat": 3046,
      "aroo": 3047,
      "etit": 3048,
      "Ġrare": 3049,
      "Ġkissed": 3050,
      "inde": 3051,
      "Ġboys": 3052,
      "Ġgets": 3053,
      "Ġgrand": 3054,
      "Ġskin": 3055,
      "Ġprince": 3056,
      "Ġdelicate": 3057,
      "Ġgiving": 3058,
      "angaroo": 3059,
      "ola": 3060,
      "Ġbottom": 3061,
      "umbers": 3062,
      "Ġpractice": 3063,
      "Ġcarpet": 3064,
      "Ġtrophy": 3065,
      "Alice": 3066,
      "Ġtask": 3067,
      "Ġbake": 3068,
      "Ġmis": 3069,
      "Ġpan": 3070,
      "Ġkangaroo": 3071,
      "Ġknife": 3072,
      "Ġscare": 3073,
      "Ġmov": 3074,
      "Ġmole": 3075,
      "Ġcompetit": 3076,
      "olog": 3077,
      "Ġmixed": 3078,
      "Ġstraw": 3079,
      "Ġenvelope": 3080,
      "Ġtoug": 3081,
      "Ġfool": 3082,
      "Ġgate": 3083,
      "ilty": 3084,
      "anged": 3085,
      "Ġrich": 3086,
      "ĠBl": 3087,
      "Ġrefused": 3088,
      "Ġballs": 3089,
      "Ġsunfl": 3090,
      "Ġgrown": 3091,
      "Ġleaving": 3092,
      "Ġdreaming": 3093,
      "Ġguilty": 3094,
      "Ġapolog": 3095,
      "Ġwrapped": 3096,
      "Ġbubbles": 3097,
      "Ġberries": 3098,
      "Sorry": 3099,
      "yal": 3100,
      "Ġnumbers": 3101,
      "ĠSnow": 3102,
      "Ġsock": 3103,
      "Ġext": 3104,
      "Ġrode": 3105,
      "Ġmeal": 3106,
      "iable": 3107,
      "Ġkinds": 3108,
      "Ġsounded": 3109,
      "Ġreliable": 3110,
      "Ġfis": 3111,
      "ĠSm": 3112,
      "Ġshake": 3113,
      "rag": 3114,
      "Ġloyal": 3115,
      "Ġnod": 3116,
      "Ġnosy": 3117,
      "Ġbranc": 3118,
      "Ġcover": 3119,
      "Ġtwist": 3120,
      "Ġcomb": 3121,
      "Ġadvice": 3122,
      "Ġcloset": 3123,
      "Ġfavour": 3124,
      "Ġneighbour": 3125,
      "Ġescape": 3126,
      "Ġreminded": 3127,
      "Ġfeathers": 3128,
      "Ġsuccessful": 3129,
      "Ġpeeked": 3130,
      "Ġbranches": 3131,
      "rop": 3132,
      "time": 3133,
      "Ġicy": 3134,
      "Ġcries": 3135,
      "Ġmay": 3136,
      "Ġgum": 3137,
      "Ġnumber": 3138,
      "irp": 3139,
      "Ġrushed": 3140,
      "Ġstri": 3141,
      "Ġstairs": 3142,
      "ĠIf": 3143,
      "ĠAl": 3144,
      "Ġclumsy": 3145,
      "Ġskip": 3146,
      "Ġexplored": 3147,
      "Ġoffice": 3148,
      "Ġkindness": 3149,
      "Ġwolf": 3150,
      "Ġteam": 3151,
      "Ġpup": 3152,
      "Ġbald": 3153,
      "Ġguess": 3154,
      "Ġinvited": 3155,
      "Ġrecord": 3156,
      "Ġfoolish": 3157,
      "Ġfavourite": 3158,
      "wards": 3159,
      "ĠNo": 3160,
      "Ġborrow": 3161,
      "ets": 3162,
      "elp": 3163,
      "Ġspun": 3164,
      "uring": 3165,
      "arth": 3166,
      "Ġnoisy": 3167,
      "ĠWhile": 3168,
      "Ġdecide": 3169,
      "Ġchain": 3170,
      "Ġbuilt": 3171,
      "Ġloudly": 3172,
      "Ġuseful": 3173,
      "issors": 3174,
      "Ġsolve": 3175,
      "Ġsalad": 3176,
      "Ġtough": 3177,
      "az": 3178,
      "lies": 3179,
      "inal": 3180,
      "Ġdig": 3181,
      "Ġthose": 3182,
      "Ġears": 3183,
      "iginal": 3184,
      "Ġshone": 3185,
      "Ġdove": 3186,
      "rage": 3187,
      "oph": 3188,
      "aul": 3189,
      "Ġoriginal": 3190,
      "arsh": 3191,
      "berry": 3192,
      "Ġresc": 3193,
      "ĠToday": 3194,
      "uggled": 3195,
      "Ġsmoke": 3196,
      "Ġbounce": 3197,
      "Ġbuttons": 3198,
      "Ġdolphin": 3199,
      "Ġextra": 3200,
      "See": 3201,
      "Ġtimes": 3202,
      "Ġsna": 3203,
      "Ġhunt": 3204,
      "Ġdull": 3205,
      "Ġpay": 3206,
      "ates": 3207,
      "Ġham": 3208,
      "Ġeld": 3209,
      "Ġjack": 3210,
      "Ġjelly": 3211,
      "Ġscissors": 3212,
      "Ġotter": 3213,
      "Ġlearning": 3214,
      "Ġoffered": 3215,
      "ĠRed": 3216,
      "body": 3217,
      "ĠGrandpa": 3218,
      "Ġattic": 3219,
      "Ġflute": 3220,
      "Ġpirate": 3221,
      "Ġsunflower": 3222,
      "com": 3223,
      "gu": 3224,
      "Ġsug": 3225,
      "anger": 3226,
      "Ġstream": 3227,
      "ention": 3228,
      "Ġrep": 3229,
      "Ġsell": 3230,
      "Ġgrandpa": 3231,
      "apa": 3232,
      "urtle": 3233,
      "Ġfamous": 3234,
      "host": 3235,
      "Ġthinking": 3236,
      "Ġcelebrate": 3237,
      "Ġbanana": 3238,
      "Ġsuggested": 3239,
      "ĠSmith": 3240,
      "Help": 3241,
      "cus": 3242,
      "Ġwand": 3243,
      "ress": 3244,
      "Ġfre": 3245,
      "Ġcone": 3246,
      "Ġcorn": 3247,
      "Ġcamp": 3248,
      "ĠSandy": 3249,
      "Ġcoco": 3250,
      "Ġtrump": 3251,
      "Ġshowing": 3252,
      "Ġmoder": 3253,
      "Ġslipped": 3254,
      "Ġboxes": 3255,
      "eeze": 3256,
      "Ġsearching": 3257,
      "Ġcheerful": 3258,
      "Ġgasped": 3259,
      "Ġflashlight": 3260,
      "Ġcocoa": 3261,
      "Re": 3262,
      "cing": 3263,
      "fast": 3264,
      "Ġwire": 3265,
      "Ġload": 3266,
      "Ġleop": 3267,
      "opus": 3268,
      "Ġbirdie": 3269,
      "Ġvi": 3270,
      "Ġhandle": 3271,
      "Ġending": 3272,
      "ctopus": 3273,
      "Ġglass": 3274,
      "ĠPolly": 3275,
      "Ġwarned": 3276,
      "Ġbags": 3277,
      "Ġfruits": 3278,
      "Ġmodern": 3279,
      "het": 3280,
      "Ġtiger": 3281,
      "Ġoctopus": 3282,
      "ote": 3283,
      "Ġbeet": 3284,
      "Ġplayful": 3285,
      "Ġchanged": 3286,
      "Ġcareless": 3287,
      "istent": 3288,
      "Ġproudly": 3289,
      "Ġhurts": 3290,
      "Ġfright": 3291,
      "Ġlights": 3292,
      "Ġhats": 3293,
      "Ġsailor": 3294,
      "Ġbreakfast": 3295,
      "Ġdesign": 3296,
      "Ġlifted": 3297,
      "Ġspeed": 3298,
      "Ġregular": 3299,
      "Ġbossy": 3300,
      "ĠSnowy": 3301,
      "Ġsugar": 3302,
      "Ġtrumpet": 3303,
      "Mary": 3304,
      "af": 3305,
      "Ġghost": 3306,
      "Ġstumbled": 3307,
      "Ġhappiness": 3308,
      "Ġsaying": 3309,
      "Ġchar": 3310,
      "ĠDave": 3311,
      "Ġpost": 3312,
      "Ġknows": 3313,
      "Ġpicks": 3314,
      "Here": 3315,
      "Ġzipper": 3316,
      "Ġrubbed": 3317,
      "Ġbatter": 3318,
      "Ġobject": 3319,
      "Ġquestion": 3320,
      "Ġserious": 3321,
      "Ġhurry": 3322,
      "Ġharmless": 3323,
      "Sp": 3324,
      "xe": 3325,
      "Ġturtle": 3326,
      "Ġaxe": 3327,
      "Ġmap": 3328,
      "ĠToby": 3329,
      "Ġgem": 3330,
      "Ġyog": 3331,
      "Ġforth": 3332,
      "ĠMark": 3333,
      "Ġspag": 3334,
      "Ġlean": 3335,
      "Ġleash": 3336,
      "Ġchase": 3337,
      "Ġyours": 3338,
      "ĠFred": 3339,
      "Ġthoughtful": 3340,
      "Ġsorts": 3341,
      "Ġarrow": 3342,
      "ipe": 3343,
      "ĠPe": 3344,
      "Ġwrote": 3345,
      "Ġunk": 3346,
      "Ġbelt": 3347,
      "Ġcooking": 3348,
      "hetti": 3349,
      "Ġspaghetti": 3350,
      "cou": 3351,
      "cope": 3352,
      "nown": 3353,
      "Ġtummy": 3354,
      "Ġhive": 3355,
      "Ġhipp": 3356,
      "erable": 3357,
      "Ġoy": 3358,
      "seum": 3359,
      "ĠMy": 3360,
      "Ġisland": 3361,
      "Ġlose": 3362,
      "Ġalert": 3363,
      "Ġstranger": 3364,
      "Ġbeauty": 3365,
      "Ġraced": 3366,
      "Ġfier": 3367,
      "âĤ¬âĢ": 3368,
      "Ġharder": 3369,
      "ĠWhenever": 3370,
      "Ġtelling": 3371,
      "Ġsett": 3372,
      "Ġdoesn": 3373,
      "Ġshoot": 3374,
      "Ġpale": 3375,
      "Ġcircle": 3376,
      "ĠRex": 3377,
      "Ġcandle": 3378,
      "Ġgraceful": 3379,
      "Ġmiserable": 3380,
      "ĠBlue": 3381,
      "Ġelderly": 3382,
      "Ġfresh": 3383,
      "Ġaunt": 3384,
      "Ġbin": 3385,
      "Ġfountain": 3386,
      "Ġcell": 3387,
      "Ġpant": 3388,
      "orant": 3389,
      "oop": 3390,
      "ugged": 3391,
      "Ġlocked": 3392,
      "Ġchose": 3393,
      "Ġraven": 3394,
      "Ġcleaning": 3395,
      "Ġperm": 3396,
      "Ġwiped": 3397,
      "Ġmuseum": 3398,
      "Ġchicken": 3399,
      "Ġmovie": 3400,
      "Ġhippo": 3401,
      "Ġfierce": 3402,
      "fa": 3403,
      "iv": 3404,
      "ipping": 3405,
      "ither": 3406,
      "Ġnorm": 3407,
      "imney": 3408,
      "irit": 3409,
      "Ġrice": 3410,
      "Ġroof": 3411,
      "Ġmoms": 3412,
      "Ġliz": 3413,
      "Ġkitty": 3414,
      "Ġloll": 3415,
      "Ġthemselves": 3416,
      "Ġscreen": 3417,
      "Ġchimney": 3418,
      "ĠEventually": 3419,
      "bborn": 3420,
      "Ġtele": 3421,
      "Ġuncom": 3422,
      "Ġtrains": 3423,
      "Ġpatch": 3424,
      "ĠGrace": 3425,
      "oomy": 3426,
      "Ġpersistent": 3427,
      "Ġcarrying": 3428,
      "Ġstubborn": 3429,
      "Ġnuts": 3430,
      "Ġprize": 3431,
      "Ġfrightened": 3432,
      "bled": 3433,
      "Ġsudden": 3434,
      "Ġcudd": 3435,
      "Ġwashed": 3436,
      "Ġmask": 3437,
      "omed": 3438,
      "Ġgoose": 3439,
      "Ġreinde": 3440,
      "Ġhelps": 3441,
      "ĠdonÃ¢": 3442,
      "emo": 3443,
      "ipop": 3444,
      "Ġstove": 3445,
      "Ġmaze": 3446,
      "Ġrestaur": 3447,
      "Ġsuit": 3448,
      "Ġshape": 3449,
      "Ġadmired": 3450,
      "Ġignorant": 3451,
      "Ġfilm": 3452,
      "Ġmicrop": 3453,
      "Ġcricket": 3454,
      "Ġlollipop": 3455,
      "Ġuncomfortable": 3456,
      "Ġrestaurant": 3457,
      "Ġmicrophone": 3458,
      "render": 3459,
      "Ġled": 3460,
      "Ġpump": 3461,
      "Ġthief": 3462,
      "ĠBella": 3463,
      "Ġshut": 3464,
      "Ġfriendship": 3465,
      "Ġvan": 3466,
      "Ġbloom": 3467,
      "Ġshows": 3468,
      "Ġenorm": 3469,
      "Ġhanded": 3470,
      "Ġcomfort": 3471,
      "Ġsniff": 3472,
      "Ġways": 3473,
      "ĠPapa": 3474,
      "Ġplaced": 3475,
      "Ġimagined": 3476,
      "Ġspoke": 3477,
      "Ġunknown": 3478,
      "Ġnormal": 3479,
      "Ġreindeer": 3480,
      "Ġenormous": 3481,
      "gust": 3482,
      "ĠOK": 3483,
      "Ġtie": 3484,
      "Ġtied": 3485,
      "Ġtire": 3486,
      "ines": 3487,
      "Ġhous": 3488,
      "Ġwake": 3489,
      "Ġped": 3490,
      "Ġpurse": 3491,
      "Ġgym": 3492,
      "Ġspirit": 3493,
      "Ġlaund": 3494,
      "Ġpepper": 3495,
      "Ġencou": 3496,
      "Ġbeak": 3497,
      "ĠBobo": 3498,
      "Ġdisgust": 3499,
      "Ġrub": 3500,
      "Ġbutterflies": 3501,
      "Ġdreams": 3502,
      "Ġdreamed": 3503,
      "Ġmetal": 3504,
      "Ġmixer": 3505,
      "Ġsurrender": 3506,
      "Ġwhisp": 3507,
      "Ġmodest": 3508,
      "ĠBrown": 3509,
      "Ġleopard": 3510,
      "Ġhouses": 3511,
      "Ġahead": 3512,
      "inary": 3513,
      "Ġbet": 3514,
      "Ġcity": 3515,
      "anny": 3516,
      "Ġwhale": 3517,
      "Ġref": 3518,
      "illa": 3519,
      "ĠYour": 3520,
      "Ġcompl": 3521,
      "Ġtrash": 3522,
      "Ġrubb": 3523,
      "Ġshopkeeper": 3524,
      "Ġpackage": 3525,
      "Ġparade": 3526,
      "arian": 3527,
      "Ġviol": 3528,
      "Ġbeetle": 3529,
      "Ġlizard": 3530,
      "While": 3531,
      "ext": 3532,
      "gn": 3533,
      "pid": 3534,
      "year": 3535,
      "ĠU": 3536,
      "heart": 3537,
      "Ġlow": 3538,
      "Ġins": 3539,
      "Ġur": 3540,
      "ict": 3541,
      "Ġmem": 3542,
      "ellig": 3543,
      "Ġagainst": 3544,
      "Ġswe": 3545,
      "Ġintellig": 3546,
      "Ġquite": 3547,
      "apping": 3548,
      "Ġballoons": 3549,
      "Ġcounted": 3550,
      "Ġcounting": 3551,
      "ggy": 3552,
      "gging": 3553,
      "Ġpotato": 3554,
      "Ġjuicy": 3555,
      "Ġstupid": 3556,
      "Ġcrayon": 3557,
      "Ġreturn": 3558,
      "ĠMaria": 3559,
      "Ġjacket": 3560,
      "Spot": 3561,
      "Ġlaundry": 3562,
      "Ġwhispered": 3563,
      "cil": 3564,
      "dge": 3565,
      "gest": 3566,
      "hood": 3567,
      "Ġind": 3568,
      "Ġhay": 3569,
      "Ġharsh": 3570,
      "Ġcomet": 3571,
      "Ġmelt": 3572,
      "iron": 3573,
      "Ġstat": 3574,
      "Ġstamp": 3575,
      "una": 3576,
      "Ġlicked": 3577,
      "Ġshocked": 3578,
      "aled": 3579,
      "Ġbiggest": 3580,
      "Ġscrew": 3581,
      "Ġsadly": 3582,
      "Ġhose": 3583,
      "Ġpeek": 3584,
      "ĠcouldnÃ¢": 3585,
      "Ġenv": 3586,
      "berries": 3587,
      "Ġlouder": 3588,
      "ĠGeorge": 3589,
      "Ġjoined": 3590,
      "Ġmagn": 3591,
      "Ġrules": 3592,
      "ĠJoey": 3593,
      "Ġcreate": 3594,
      "Ġguard": 3595,
      "Ġpencil": 3596,
      "Ġmailbox": 3597,
      "Ġsurf": 3598,
      "Ġdiscover": 3599,
      "Ġkicked": 3600,
      "Ġfingers": 3601,
      "Ġeggs": 3602,
      "Ġhelm": 3603,
      "Ġviolin": 3604,
      "cream": 3605,
      "corn": 3606,
      "hroom": 3607,
      "Ġbent": 3608,
      "Ġmama": 3609,
      "ath": 3610,
      "Ġnature": 3611,
      "Ġthirst": 3612,
      "Ġearth": 3613,
      "Ġshine": 3614,
      "Ġshadow": 3615,
      "Ġreco": 3616,
      "ĠMike": 3617,
      "Ġspilled": 3618,
      "Ġscale": 3619,
      "ĠWould": 3620,
      "Ġagree": 3621,
      "Ġlearnt": 3622,
      "ĠRose": 3623,
      "Ġmushroom": 3624,
      "Ġhung": 3625,
      "Ġrolling": 3626,
      "Ġsparkled": 3627,
      "osie": 3628,
      "Ġcupboard": 3629,
      "Ġpopcorn": 3630,
      "Ġshells": 3631,
      "Ġdestro": 3632,
      "Ġoyster": 3633,
      "Ġintelligent": 3634,
      "Ġstatue": 3635,
      "eve": 3636,
      "loe": 3637,
      "Ġing": 3638,
      "Ġfrag": 3639,
      "Ġpow": 3640,
      "Ġstation": 3641,
      "Ġlibr": 3642,
      "Ġshaking": 3643,
      "Ġjolly": 3644,
      "Ġspace": 3645,
      "ummer": 3646,
      "Ġroared": 3647,
      "Ġcost": 3648,
      "Ġtrack": 3649,
      "Ġunpack": 3650,
      "Ġsweetheart": 3651,
      "Ġcourage": 3652,
      "Ġlaughs": 3653,
      "Ġcomplet": 3654,
      "redient": 3655,
      "Ġgrowing": 3656,
      "Ġmissing": 3657,
      "Ġpilot": 3658,
      "eezed": 3659,
      "Ġindepend": 3660,
      "Ġthirsty": 3661,
      "Ġingredient": 3662,
      "Yay": 3663,
      "oot": 3664,
      "pes": 3665,
      "uel": 3666,
      "ye": 3667,
      "Ġson": 3668,
      "Ġbump": 3669,
      "Ġhook": 3670,
      "Ġfine": 3671,
      "erry": 3672,
      "Ġph": 3673,
      "atter": 3674,
      "ĠitÃ¢": 3675,
      "Ġstared": 3676,
      "Ġsofa": 3677,
      "Ġvide": 3678,
      "Ġimpro": 3679,
      "Ġpushing": 3680,
      "ations": 3681,
      "Ġcompass": 3682,
      "Ġfalls": 3683,
      "Ġcolours": 3684,
      "Ġtroubled": 3685,
      "Ġorganize": 3686,
      "ĠRemy": 3687,
      "Ġtwirled": 3688,
      "achel": 3689,
      "Ġcompetitive": 3690,
      "Ġdisgusting": 3691,
      "Ġrecogn": 3692,
      "ience": 3693,
      "par": 3694,
      "ubby": 3695,
      "Ġfour": 3696,
      "Ġlamp": 3697,
      "ĠTed": 3698,
      "Ġsauce": 3699,
      "Ġnail": 3700,
      "Ġitself": 3701,
      "stairs": 3702,
      "ĠBaby": 3703,
      "Ġtools": 3704,
      "Ġsepar": 3705,
      "Ġchubby": 3706,
      "Ġpole": 3707,
      "Ġtwig": 3708,
      "Ġeng": 3709,
      "sely": 3710,
      "Ġframe": 3711,
      "Ġpainter": 3712,
      "Ġjokes": 3713,
      "ĠNemo": 3714,
      "Ġreading": 3715,
      "Ġpoint": 3716,
      "Ġpengu": 3717,
      "Ġattract": 3718,
      "Ġspinning": 3719,
      "Ġdestroy": 3720,
      "Ġingredients": 3721,
      "ikes": 3722,
      "oppy": 3723,
      "yer": 3724,
      "Ġwitch": 3725,
      "Ġcush": 3726,
      "Ġol": 3727,
      "atch": 3728,
      "Ġnurse": 3729,
      "Ġyet": 3730,
      "Ġyaw": 3731,
      "ĠBu": 3732,
      "Ġshort": 3733,
      "Ġrepe": 3734,
      "Ġkay": 3735,
      "tern": 3736,
      "ĠAlex": 3737,
      "iew": 3738,
      "Ġview": 3739,
      "uct": 3740,
      "Ġnicely": 3741,
      "Ġunl": 3742,
      "Ġtravel": 3743,
      "Ġdrawer": 3744,
      "Ġsecond": 3745,
      "Ġbarber": 3746,
      "Ġearly": 3747,
      "Ġordinary": 3748,
      "Ġpants": 3749,
      "Ġhelmet": 3750,
      "Ġphot": 3751,
      "Little": 3752,
      "med": 3753,
      "noon": 3754,
      "Ġflex": 3755,
      "ĠTr": 3756,
      "ison": 3757,
      "Ġhero": 3758,
      "amond": 3759,
      "elery": 3760,
      "Ġrece": 3761,
      "Ġreve": 3762,
      "alk": 3763,
      "Ġnotice": 3764,
      "ecause": 3765,
      "ĠWhere": 3766,
      "play": 3767,
      "Ġsword": 3768,
      "Ġclosely": 3769,
      "Ġcheap": 3770,
      "Ġarg": 3771,
      "Ġimpat": 3772,
      "Ġdisplay": 3773,
      "Ġafternoon": 3774,
      "Ġsandc": 3775,
      "Ġresist": 3776,
      "Ġenth": 3777,
      "Ġpassport": 3778,
      "Ġfolder": 3779,
      "Ġlawyer": 3780,
      "Ġdiamond": 3781,
      "Grandma": 3782,
      "Ġspoiled": 3783,
      "Ġfrowned": 3784,
      "Ġsilver": 3785,
      "uzzy": 3786,
      "ophie": 3787,
      "Ġcharming": 3788,
      "Ġfragile": 3789,
      "Ġindependent": 3790,
      "shed": 3791,
      "Ġbase": 3792,
      "Ġhoop": 3793,
      "Ġfuel": 3794,
      "Ġdive": 3795,
      "Ġpit": 3796,
      "orilla": 3797,
      "ric": 3798,
      "ĠLook": 3799,
      "Ġhadn": 3800,
      "ĠBuddy": 3801,
      "Ġanx": 3802,
      "Ġjet": 3803,
      "ĠJul": 3804,
      "Ġallowed": 3805,
      "Ġmeas": 3806,
      "Ġchasing": 3807,
      "Ġfinding": 3808,
      "Ġsunset": 3809,
      "Ġcats": 3810,
      "Ġneedle": 3811,
      "Ġart": 3812,
      "ĠRosie": 3813,
      "Ġlistening": 3814,
      "Ġzeb": 3815,
      "Ġhairy": 3816,
      "Ġshoe": 3817,
      "Ġvisited": 3818,
      "Ġtreasures": 3819,
      "Ġdistant": 3820,
      "Ġpracticed": 3821,
      "Ġtomato": 3822,
      "Ġadmire": 3823,
      "Ġdecorate": 3824,
      "Ġseeds": 3825,
      "Ġcompassion": 3826,
      "Ġimpatient": 3827,
      "Ġenthus": 3828,
      "Ġzebra": 3829,
      "Ġiron": 3830,
      "Ġsize": 3831,
      "Ġtoil": 3832,
      "Ġcards": 3833,
      "Ġdess": 3834,
      "Ġmill": 3835,
      "Ġmild": 3836,
      "llie": 3837,
      "ĠIÃ¢": 3838,
      "ĠBet": 3839,
      "Ġshiver": 3840,
      "Ġshield": 3841,
      "ills": 3842,
      "Ġscatter": 3843,
      "Ġtrunk": 3844,
      "ÅĵYou": 3845,
      "ĠAndy": 3846,
      "Ġsleeping": 3847,
      "ĠKate": 3848,
      "Ġgiggle": 3849,
      "Ġwrap": 3850,
      "Ġstretch": 3851,
      "Ġpoured": 3852,
      "Ġenvious": 3853,
      "Ġattractive": 3854,
      "Ġflexible": 3855,
      "Ġtoilet": 3856,
      "ci": 3857,
      "Ġsummer": 3858,
      "ince": 3859,
      "ision": 3860,
      "Ġgorilla": 3861,
      "Ġhalf": 3862,
      "ĠLola": 3863,
      "Ġknock": 3864,
      "Ġstarting": 3865,
      "ucked": 3866,
      "Ġanywhere": 3867,
      "Ġener": 3868,
      "Ġsne": 3869,
      "Ġtowers": 3870,
      "Ġpattern": 3871,
      "Ġstops": 3872,
      "Ġsteal": 3873,
      "Ġdriving": 3874,
      "Ġwindows": 3875,
      "Ġsplit": 3876,
      "Ġvend": 3877,
      "Ġcreatures": 3878,
      "Ġshrimp": 3879,
      "Ġburn": 3880,
      "Ġhumble": 3881,
      "Ġriding": 3882,
      "Ġavo": 3883,
      "ÅĵItÃ¢": 3884,
      "Ġanxious": 3885,
      "Ġdessert": 3886,
      "Ġtem": 3887,
      "Ġsend": 3888,
      "Ġtheater": 3889,
      "Ġcro": 3890,
      "erc": 3891,
      "indy": 3892,
      "iches": 3893,
      "Ġstarts": 3894,
      "used": 3895,
      "Ġolder": 3896,
      "ĠEverything": 3897,
      "Ġmeans": 3898,
      "Ġtrick": 3899,
      "Ġpretending": 3900,
      "Ġpapers": 3901,
      "Ġcrazy": 3902,
      "Ġmarched": 3903,
      "Ġsuper": 3904,
      "Ġexper": 3905,
      "Ġfootball": 3906,
      "Ġfilthy": 3907,
      "Ġstretched": 3908,
      "Ġrescue": 3909,
      "Ġengine": 3910,
      "aid": 3911,
      "ef": 3912,
      "under": 3913,
      "Ġsym": 3914,
      "reci": 3915,
      "Ġfurt": 3916,
      "Ġsaus": 3917,
      "une": 3918,
      "Ġshade": 3919,
      "Ġisn": 3920,
      "Ġspell": 3921,
      "Ġknob": 3922,
      "ĠWh": 3923,
      "Ġfactor": 3924,
      "Ġlab": 3925,
      "robe": 3926,
      "Ġvine": 3927,
      "Ġpoem": 3928,
      "ĠFin": 3929,
      "Ġbrace": 3930,
      "ected": 3931,
      "Ġshouldn": 3932,
      "Ġnowhere": 3933,
      "Ġcryst": 3934,
      "Ġappreci": 3935,
      "Ġsticker": 3936,
      "Ġcrane": 3937,
      "Ġbehave": 3938,
      "Ġcountry": 3939,
      "angle": 3940,
      "Ġbounced": 3941,
      "Ġimpress": 3942,
      "arlie": 3943,
      "Ġinsist": 3944,
      "Ġfactory": 3945,
      "Ch": 3946,
      "Daisy": 3947,
      "iest": 3948,
      "rn": 3949,
      "ron": 3950,
      "Ġcurt": 3951,
      "Ġpad": 3952,
      "ĠTony": 3953,
      "Ġthunder": 3954,
      "ckey": 3955,
      "Ġsoar": 3956,
      "Ġweather": 3957,
      "Ġreef": 3958,
      "Ġsomewhere": 3959,
      "Ġflour": 3960,
      "Ġhockey": 3961,
      "ĠCat": 3962,
      "Ġsnuggled": 3963,
      "Ġglove": 3964,
      "Ġbadly": 3965,
      "Ġdishes": 3966,
      "Ġlightning": 3967,
      "Ġgiven": 3968,
      "Ġspring": 3969,
      "Ġsandwiches": 3970,
      "Ġhuman": 3971,
      "Ġvendor": 3972,
      "Ġcurtain": 3973,
      "Will": 3974,
      "bor": 3975,
      "big": 3976,
      "lid": 3977,
      "night": 3978,
      "ser": 3979,
      "scope": 3980,
      "Ġfan": 3981,
      "Ġcree": 3982,
      "Ġdug": 3983,
      "Ġmuff": 3984,
      "isk": 3985,
      "iling": 3986,
      "Ġnation": 3987,
      "anic": 3988,
      "Ġherb": 3989,
      "uth": 3990,
      "Ġumb": 3991,
      "Ġbeep": 3992,
      "Ġgoal": 3993,
      "Ġjug": 3994,
      "Ġexerc": 3995,
      "ĠAre": 3996,
      "Ġknot": 3997,
      "Ġscold": 3998,
      "roscope": 3999,
      "Ġstrugg": 4000,
      "Ġgrin": 4001,
      "Ġstickers": 4002,
      "Ġbrothers": 4003,
      "Ġswinging": 4004,
      "Ġmicroscope": 4005,
      "Ġwishes": 4006,
      "Ġsoldier": 4007,
      "âĤ¬âĢľ": 4008,
      "Ġkayak": 4009,
      "Ġfurther": 4010,
      "bigail": 4011,
      "Ġumbre": 4012,
      "hic": 4013,
      "lud": 4014,
      "sing": 4015,
      "inarian": 4016,
      "Ġbri": 4017,
      "Ġlend": 4018,
      "Ġcur": 4019,
      "Ġcelery": 4020,
      "ense": 4021,
      "ĠSh": 4022,
      "chanic": 4023,
      "Ġboots": 4024,
      "âĤ¬.": 4025,
      "Ġclapping": 4026,
      "Ġrose": 4027,
      "Ġmechanic": 4028,
      "Ġholid": 4029,
      "Ġtruth": 4030,
      "Ġdisag": 4031,
      "Ġclimbing": 4032,
      "ĠRo": 4033,
      "Ġdrawings": 4034,
      "eterinarian": 4035,
      "Ġvehic": 4036,
      "Ġgifted": 4037,
      "Ġminute": 4038,
      "Ġpopular": 4039,
      "Ġexamine": 4040,
      "Jenny": 4041,
      "Ġoats": 4042,
      "Ġhammer": 4043,
      "Ġpumpkin": 4044,
      "Ġcostum": 4045,
      "Ġsymbo": 4046,
      "Ġumbrella": 4047,
      "Ġholiday": 4048,
      "'.": 4049,
      "Because": 4050,
      "Go": 4051,
      "eath": 4052,
      "ocer": 4053,
      "rise": 4054,
      "was": 4055,
      "zor": 4056,
      "Ġtut": 4057,
      "Ġach": 4058,
      "Ġtoast": 4059,
      "Ġluck": 4060,
      "Ġrhin": 4061,
      "ado": 4062,
      "Ġreward": 4063,
      "reeze": 4064,
      "place": 4065,
      "Ġveterinarian": 4066,
      "Ġclock": 4067,
      "Ġquar": 4068,
      "Ġrazor": 4069,
      "Ġgloomy": 4070,
      "Ġsquash": 4071,
      "Ġforgave": 4072,
      "Ġinclud": 4073,
      "Ġcardboard": 4074,
      "Ġharbor": 4075,
      "Ġsteps": 4076,
      "Ġberry": 4077,
      "Ġfearful": 4078,
      "ÅĵThatÃ¢": 4079,
      "Ġcherry": 4080,
      "Ġdishwas": 4081,
      "Ġhunter": 4082,
      "Ġleaned": 4083,
      "oceros": 4084,
      "Ġrhinoceros": 4085,
      "Ġdishwasher": 4086,
      "Give": 4087,
      "ab": 4088,
      "aff": 4089,
      "io": 4090,
      "ses": 4091,
      "Ġig": 4092,
      "Ġsent": 4093,
      "inking": 4094,
      "Ġfat": 4095,
      "Ġsheep": 4096,
      "Ġnames": 4097,
      "ssible": 4098,
      "Ġswitch": 4099,
      "Ġanyway": 4100,
      "Ġended": 4101,
      "astic": 4102,
      "ĠGive": 4103,
      "Ġdeliver": 4104,
      "Ġraining": 4105,
      "Ġbrighter": 4106,
      "Ġboats": 4107,
      "ĠKim": 4108,
      "Ġdancer": 4109,
      "Ġbalanc": 4110,
      "Ġcelebrated": 4111,
      "ĠChloe": 4112,
      "Ġmule": 4113,
      "Ġclassroom": 4114,
      "Ġprepare": 4115,
      "Ġimpressive": 4116,
      "Ġcreek": 4117,
      "Ġigloo": 4118,
      "gie": 4119,
      "ween": 4120,
      "Ġten": 4121,
      "inked": 4122,
      "Ġhedge": 4123,
      "Ġmen": 4124,
      "arry": 4125,
      "any": 4126,
      "orable": 4127,
      "Ġstack": 4128,
      "stic": 4129,
      "ents": 4130,
      "ĠBear": 4131,
      "icer": 4132,
      "ĠWill": 4133,
      "Ġputting": 4134,
      "Ġcham": 4135,
      "ĠdidnÃ¢": 4136,
      "Ġpear": 4137,
      "Ġoffer": 4138,
      "Thanks": 4139,
      "Ġtrap": 4140,
      "Ġtriangle": 4141,
      "Ġbarn": 4142,
      "Ġcere": 4143,
      "Ġobser": 4144,
      "Ġwheat": 4145,
      "Ġbandage": 4146,
      "ĠSteve": 4147,
      "Ġmotorcy": 4148,
      "Ġlively": 4149,
      "Together": 4150,
      "Ġbetween": 4151,
      "Ġtutor": 4152,
      "Ġmotorcycle": 4153,
      "case": 4154,
      "Ġants": 4155,
      "Ġsink": 4156,
      "Ġsuff": 4157,
      "Ġpair": 4158,
      "Ġoak": 4159,
      "Ġthumb": 4160,
      "Ġinf": 4161,
      "Ġrug": 4162,
      "Ġshel": 4163,
      "Ġonion": 4164,
      "Ġshark": 4165,
      "Ġknown": 4166,
      "asc": 4167,
      "Ġsunrise": 4168,
      "Ġtrade": 4169,
      "Ġexplain": 4170,
      "iastic": 4171,
      "Ġadorable": 4172,
      "Ġevening": 4173,
      "Ġchess": 4174,
      "astles": 4175,
      "ngth": 4176,
      "Ġmagaz": 4177,
      "Ġlions": 4178,
      "Ġthanks": 4179,
      "Ġsub": 4180,
      "Ġstrength": 4181,
      "Ġbouncing": 4182,
      "Ġmystery": 4183,
      "Ġletters": 4184,
      "Ġimagination": 4185,
      "Inside": 4186,
      "Ġchickens": 4187,
      "Daddy": 4188,
      "Ġavail": 4189,
      "Emily": 4190,
      "Ġradio": 4191,
      "Ġfishing": 4192,
      "Ġrepair": 4193,
      "Ġmagnet": 4194,
      "Ġlibrary": 4195,
      "Ġvideo": 4196,
      "Ġenthusiastic": 4197,
      "Ġenergy": 4198,
      "Ġbracelet": 4199,
      "Ġquarrel": 4200,
      "Is": 4201,
      "Jim": 4202,
      "ibb": 4203,
      "lass": 4204,
      "sit": 4205,
      "Ġbikes": 4206,
      "Ġpun": 4207,
      "Ġport": 4208,
      "arm": 4209,
      "ĠSee": 4210,
      "Ġthread": 4211,
      "ĠHere": 4212,
      "ceed": 4213,
      "ĠLuna": 4214,
      "Ġplayer": 4215,
      "Ġweep": 4216,
      "unately": 4217,
      "Ġrequ": 4218,
      "Ġseas": 4219,
      "urb": 4220,
      "Ġhelpless": 4221,
      "Ġscoot": 4222,
      "Ġflame": 4223,
      "Ġblinked": 4224,
      "ips": 4225,
      "Ġwriting": 4226,
      "Ġsoftly": 4227,
      "ulu": 4228,
      "Ġveil": 4229,
      "Ġdisturb": 4230,
      "Ġeagerly": 4231,
      "Ġrespectful": 4232,
      "Ġstirred": 4233,
      "Ġcabinet": 4234,
      "Ġcompassionate": 4235,
      "Ġmagazine": 4236,
      "Ġavailable": 4237,
      "'ve": 4238,
      "If": 4239,
      "cut": 4240,
      "gs": 4241,
      "gen": 4242,
      "nit": 4243,
      "ray": 4244,
      "te": 4245,
      "Ġwing": 4246,
      "Ġpor": 4247,
      "Ġpra": 4248,
      "Ġgear": 4249,
      "ĠIs": 4250,
      "Ġneat": 4251,
      "Ġbackpack": 4252,
      "ĠElla": 4253,
      "bbie": 4254,
      "Ġsung": 4255,
      "mand": 4256,
      "ement": 4257,
      "Ġtear": 4258,
      "Ġamazement": 4259,
      "Ġshouts": 4260,
      "Ġhoping": 4261,
      "Ġfireplace": 4262,
      "Ġparent": 4263,
      "Ġholds": 4264,
      "Ġfurnit": 4265,
      "Ġpiano": 4266,
      "Ġprov": 4267,
      "Ġceiling": 4268,
      "Ġthrowing": 4269,
      "Ġimagine": 4270,
      "Ġshrugged": 4271,
      "Ġapologized": 4272,
      "Ġcushion": 4273,
      "Ġvehicle": 4274,
      "Ġcereal": 4275,
      "Ġfurniture": 4276,
      "Ann": 4277,
      "Ow": 4278,
      "nam": 4279,
      "Ġsle": 4280,
      "Ġfasc": 4281,
      "Ġlid": 4282,
      "Ġpal": 4283,
      "Ġpipe": 4284,
      "enry": 4285,
      "Ġhall": 4286,
      "ĠSophie": 4287,
      "ora": 4288,
      "Ġyach": 4289,
      "ooped": 4290,
      "ĠLilly": 4291,
      "Ġlip": 4292,
      "chair": 4293,
      "illie": 4294,
      "ĠAbigail": 4295,
      "Ġfauc": 4296,
      "Ġswamp": 4297,
      "Ġholes": 4298,
      "Ġtray": 4299,
      "Ġskipping": 4300,
      "ÅĵLook": 4301,
      "Ġshoulder": 4302,
      "ĠRachel": 4303,
      "cod": 4304,
      "Ġcreated": 4305,
      "Ġtripped": 4306,
      "Ġcooler": 4307,
      "Ġairport": 4308,
      "Ġarmchair": 4309,
      "Ġsuitc": 4310,
      "Ġcounter": 4311,
      "Ġbreaks": 4312,
      "Ġfields": 4313,
      "Ġbeef": 4314,
      "Ġcollar": 4315,
      "Ġpige": 4316,
      "Ġsplashing": 4317,
      "Ġslides": 4318,
      "Ġcomplain": 4319,
      "Ġseparate": 4320,
      "Ġpenguin": 4321,
      "Ġcrocod": 4322,
      "Ġchamber": 4323,
      "lasses": 4324,
      "Ġsunglasses": 4325,
      "Ġpalace": 4326,
      "Ġyacht": 4327,
      "Ġfaucet": 4328,
      "Peter": 4329,
      "ccol": 4330,
      "cano": 4331,
      "dom": 4332,
      "tress": 4333,
      "Ġbreeze": 4334,
      "Ġfle": 4335,
      "Ġwaste": 4336,
      "Ġpand": 4337,
      "Ġeither": 4338,
      "Ġstage": 4339,
      "alley": 4340,
      "urch": 4341,
      "ices": 4342,
      "Ġcane": 4343,
      "Ġalarm": 4344,
      "Ġskills": 4345,
      "Ġbookcase": 4346,
      "Ġdeaf": 4347,
      "Ġshouting": 4348,
      "ĠInst": 4349,
      "phone": 4350,
      "Ġpetals": 4351,
      "Ġcomput": 4352,
      "Ġjourn": 4353,
      "Ġsurround": 4354,
      "Ġcrawl": 4355,
      "Ġmistakes": 4356,
      "Ġsucceed": 4357,
      "Everyone": 4358,
      "Ġblowing": 4359,
      "Ġwhisper": 4360,
      "Ġstuffed": 4361,
      "Ġaccepted": 4362,
      "Ġtelephone": 4363,
      "Ġcomplete": 4364,
      "Ġimprove": 4365,
      "Ġrepeat": 4366,
      "Ġcrystal": 4367,
      "Ġsymbol": 4368,
      "ccoli": 4369,
      "ib": 4370,
      "ium": 4371,
      "Ġtorn": 4372,
      "Ġfive": 4373,
      "Ġdough": 4374,
      "Ġmel": 4375,
      "Ġink": 4376,
      "Ġbeamed": 4377,
      "Ġrot": 4378,
      "Ġhappier": 4379,
      "Ġrever": 4380,
      "ĠMandy": 4381,
      "ĠJames": 4382,
      "icop": 4383,
      "Ġchance": 4384,
      "Ġpopped": 4385,
      "Ġbuzz": 4386,
      "Ġvol": 4387,
      "Ġfog": 4388,
      "Ġappro": 4389,
      "Ġbroccoli": 4390,
      "Ġtrail": 4391,
      "Ġrestless": 4392,
      "Ġfloating": 4393,
      "Ġpushes": 4394,
      "Ġpressed": 4395,
      "Ġmattress": 4396,
      "Ġpaid": 4397,
      "Ġattention": 4398,
      "Ġpastry": 4399,
      "Ġshrink": 4400,
      "Ġtuna": 4401,
      "Ġflutter": 4402,
      "Ġhelicop": 4403,
      "Ġdrops": 4404,
      "happy": 4405,
      "Ġyoga": 4406,
      "Ġsweater": 4407,
      "Ġpowder": 4408,
      "Ġexercise": 4409,
      "Ġgrinned": 4410,
      "Ġsubway": 4411,
      "Ġfascin": 4412,
      "Ġcrocodile": 4413,
      "Ġhelicopter": 4414,
      "\",": 4415,
      "Mr": 4416,
      "Would": 4417,
      "lier": 4418,
      "mend": 4419,
      "vator": 4420,
      "Ġwife": 4421,
      "Ġhut": 4422,
      "Ġpine": 4423,
      "ommend": 4424,
      "anna": 4425,
      "Ġweap": 4426,
      "fume": 4427,
      "ĠJerry": 4428,
      "Ġnobody": 4429,
      "Ġchirp": 4430,
      "Ġornam": 4431,
      "Ġraft": 4432,
      "Ġchecked": 4433,
      "Ġunhappy": 4434,
      "Benny": 4435,
      "Ġperfume": 4436,
      "Ġpulls": 4437,
      "Ġprevent": 4438,
      "Ġhaircut": 4439,
      "Ġmarry": 4440,
      "Ġmarried": 4441,
      "Ġelevator": 4442,
      "Ġattach": 4443,
      "Ġquietly": 4444,
      "Ġbelongs": 4445,
      "Ġearlier": 4446,
      "Ġapron": 4447,
      "Ġmeeting": 4448,
      "Ġvalue": 4449,
      "Ġrecommend": 4450,
      "Ġlawn": 4451,
      "Ġmarbles": 4452,
      "Ġwandered": 4453,
      "Ġrelaxed": 4454,
      "ĠFreddy": 4455,
      "Ġphoto": 4456,
      "Ġjournal": 4457,
      "ait": 4458,
      "aked": 4459,
      "zag": 4460,
      "ito": 4461,
      "Ġgro": 4462,
      "igzag": 4463,
      "Ġbean": 4464,
      "Ġribb": 4465,
      "kelet": 4466,
      "Ġshamp": 4467,
      "Ġnoteb": 4468,
      "!\",": 4469,
      "Ġgolf": 4470,
      "Ġjail": 4471,
      "Ġcob": 4472,
      "Ġfinds": 4473,
      "Ġpoked": 4474,
      "Ġskirt": 4475,
      "Ġslipper": 4476,
      "Ġappl": 4477,
      "Ġjogged": 4478,
      "Ġheaded": 4479,
      "Ġopens": 4480,
      "ĠJenna": 4481,
      "Ġpolish": 4482,
      "fortunately": 4483,
      "Ġeagle": 4484,
      "Ġadmir": 4485,
      "Ġserve": 4486,
      "Ġspeak": 4487,
      "Ġparrot": 4488,
      "Ġpinch": 4489,
      "Emma": 4490,
      "Ġcherries": 4491,
      "ĠFrank": 4492,
      "ĠClara": 4493,
      "Ġurge": 4494,
      "Ġsandcastle": 4495,
      "Ġsneak": 4496,
      "Ġinfant": 4497,
      "Ġshampoo": 4498,
      "Ġnotebook": 4499,
      "Ġslippery": 4500,
      "appy": 4501,
      "lb": 4502,
      "Ġtucked": 4503,
      "Ġdust": 4504,
      "Ġpage": 4505,
      "Ġsaving": 4506,
      "Ġstad": 4507,
      "ĠLulu": 4508,
      "Ġshakes": 4509,
      "Ġnote": 4510,
      "aggie": 4511,
      "Ġchurch": 4512,
      "Ġswung": 4513,
      "Ġvroom": 4514,
      "Ġvalley": 4515,
      "Ġgrapes": 4516,
      "ucture": 4517,
      "Ġorder": 4518,
      "Ġstructure": 4519,
      "Ġbulb": 4520,
      "Ġdiscus": 4521,
      "Ġdressed": 4522,
      "Ġsandbox": 4523,
      "Ġfloated": 4524,
      "Sammy": 4525,
      "Ġperfectly": 4526,
      "Ġsparkling": 4527,
      "Ġfreez": 4528,
      "Ġincre": 4529,
      "Ġburning": 4530,
      "Ġsupply": 4531,
      "Ġlemonade": 4532,
      "Ġshooting": 4533,
      "Ġrefre": 4534,
      "Ġrubber": 4535,
      "Ġflea": 4536,
      "Ġvolcano": 4537,
      "Ġstadium": 4538,
      "Eventually": 4539,
      "azz": 4540,
      "cc": 4541,
      "ges": 4542,
      "ler": 4543,
      "nger": 4544,
      "tain": 4545,
      "ues": 4546,
      "Ġsimp": 4547,
      "Ġfought": 4548,
      "Ġlime": 4549,
      "Ġwashing": 4550,
      "Ġpalm": 4551,
      "igate": 4552,
      "Ġplastic": 4553,
      "Ġhappens": 4554,
      "ĠMilly": 4555,
      "Ġtool": 4556,
      "Ġseeing": 4557,
      "Ġfeelings": 4558,
      "Ġraise": 4559,
      "ction": 4560,
      "Ġcube": 4561,
      "Ġsurprises": 4562,
      "Ġunderstanding": 4563,
      "anges": 4564,
      "Ġfallen": 4565,
      "Ġcups": 4566,
      "Ġinvest": 4567,
      "Ġpresents": 4568,
      "Ġpuddles": 4569,
      "Ġenter": 4570,
      "Ġstraight": 4571,
      "Ġglowing": 4572,
      "Ġstrawberry": 4573,
      "Ġscolded": 4574,
      "Ġscooter": 4575,
      "Ġpraised": 4576,
      "Ġslept": 4577,
      "Ġgrocer": 4578,
      "keleton": 4579,
      "Bye": 4580,
      "ffe": 4581,
      "right": 4582,
      "ites": 4583,
      "Ġcase": 4584,
      "Ġhesit": 4585,
      "Ġbears": 4586,
      "Ġrag": 4587,
      "Ġstro": 4588,
      "Ġstud": 4589,
      "Ġstaff": 4590,
      "Ġsoil": 4591,
      "Ġfort": 4592,
      "htub": 4593,
      "Ġseal": 4594,
      "Ġleak": 4595,
      "Ġcoffe": 4596,
      "Ġflapped": 4597,
      "Ġchir": 4598,
      "Ġdoggy": 4599,
      "ionary": 4600,
      "ĠJosh": 4601,
      "Ġsneeze": 4602,
      "Ġdemand": 4603,
      "Ġblueberry": 4604,
      "Ġsqueeze": 4605,
      "Ġcrow": 4606,
      "Ġtaller": 4607,
      "Ġbathtub": 4608,
      "Ġfalling": 4609,
      "bbles": 4610,
      "Ġwelcomed": 4611,
      "Ġwinter": 4612,
      "Ġinstr": 4613,
      "Ġwheels": 4614,
      "Ġignored": 4615,
      "Ġsupport": 4616,
      "Ġregret": 4617,
      "Today": 4618,
      "Ġbarking": 4619,
      "ĠBrownie": 4620,
      "ictionary": 4621,
      "Ġavoc": 4622,
      "Ġinsisted": 4623,
      "iskers": 4624,
      "Ġporch": 4625,
      "Ġpigeon": 4626,
      "ĠInstead": 4627,
      "Ġinvestigate": 4628,
      "Ġcoffee": 4629,
      "Tweet": 4630,
      "ives": 4631,
      "vet": 4632,
      "web": 4633,
      "Ġdictionary": 4634,
      "Ġpur": 4635,
      "ising": 4636,
      "Ġitch": 4637,
      "ĠHelp": 4638,
      "Ġbeg": 4639,
      "hter": 4640,
      "Ġworth": 4641,
      "Ġcopper": 4642,
      "rod": 4643,
      "ĠFro": 4644,
      "Ġintrod": 4645,
      "Ġlaughter": 4646,
      "Ġtwink": 4647,
      "Ġrooms": 4648,
      "Ġsort": 4649,
      "Ġcheek": 4650,
      "Ġuniver": 4651,
      "Ġdelay": 4652,
      "aces": 4653,
      "Ġbelow": 4654,
      "Ġfollowing": 4655,
      "Ġhopes": 4656,
      "Johnny": 4657,
      "Ġfirework": 4658,
      "Ġladyb": 4659,
      "Ġfloat": 4660,
      "Ġmessage": 4661,
      "Ġsquirrels": 4662,
      "Ġdisappear": 4663,
      "Ġpaused": 4664,
      "Ġnapkin": 4665,
      "ÅĵIÃ¢": 4666,
      "Ġeasier": 4667,
      "Ġapart": 4668,
      "Ġgrabs": 4669,
      "ĠCharlie": 4670,
      "Ġsolved": 4671,
      "Ġhanging": 4672,
      "Ġcrossed": 4673,
      "Ġgolden": 4674,
      "ĠUn": 4675,
      "Ġbaseball": 4676,
      "Ġsuitcase": 4677,
      "Ġcomputer": 4678,
      "Ġweapon": 4679,
      "Ġcobweb": 4680,
      "iately": 4681,
      "Ġskeleton": 4682,
      "edy": 4683,
      "Ġwaving": 4684,
      "Ġchat": 4685,
      "Ġeff": 4686,
      "Ġrise": 4687,
      "Ġsocks": 4688,
      "addy": 4689,
      "Ġweigh": 4690,
      "ĠBill": 4691,
      "Ġlives": 4692,
      "ĠMay": 4693,
      "Ġmanage": 4694,
      "ĠElly": 4695,
      "aud": 4696,
      "inky": 4697,
      "Ġwarning": 4698,
      "Ġrabbits": 4699,
      "ission": 4700,
      "Ġshovel": 4701,
      "Ġgrowled": 4702,
      "Ġbarrel": 4703,
      "Ġblackboard": 4704,
      "Ġpatiently": 4705,
      "Ġburned": 4706,
      "spap": 4707,
      "Ġdiary": 4708,
      "Ġcaptain": 4709,
      "Ġdecorations": 4710,
      "Ġbarks": 4711,
      "Ġsprayed": 4712,
      "Ġpaws": 4713,
      "ĠAnnie": 4714,
      "Ġdestination": 4715,
      "looking": 4716,
      "Ġawe": 4717,
      "Ġneighbourhood": 4718,
      "Ġsettle": 4719,
      "Ġpermission": 4720,
      "Ġsniffed": 4721,
      "Ġdestroyed": 4722,
      "mediately": 4723,
      "ĠWhiskers": 4724,
      "Ġappreciate": 4725,
      "..": 4726,
      "Fl": 4727,
      "Mark": 4728,
      "Mandy": 4729,
      "Ouch": 4730,
      "With": 4731,
      "ccer": 4732,
      "momet": 4733,
      "mother": 4734,
      "ring": 4735,
      "rmomet": 4736,
      "Ġsince": 4737,
      "Ġthermomet": 4738,
      "Ġmop": 4739,
      "ayla": 4740,
      "ories": 4741,
      "Ġbegged": 4742,
      "Ġsoccer": 4743,
      "hero": 4744,
      "raged": 4745,
      "ores": 4746,
      "Ġspade": 4747,
      "Ġsport": 4748,
      "icing": 4749,
      "Ġmeat": 4750,
      "asis": 4751,
      "Ġnewspap": 4752,
      "Ġpride": 4753,
      "Ġpoppy": 4754,
      "Ġtap": 4755,
      "Ġopera": 4756,
      "emember": 4757,
      "Ġdoors": 4758,
      "Ġunite": 4759,
      "Ġtrave": 4760,
      "Ġfireman": 4761,
      "Ġsetting": 4762,
      "Ġsmells": 4763,
      "Ġpaints": 4764,
      "elcome": 4765,
      "Ġlands": 4766,
      "Ġwhistling": 4767,
      "Ġcrawling": 4768,
      "Ġentered": 4769,
      "Ġcollecting": 4770,
      "Ġringing": 4771,
      "Ġradish": 4772,
      "Ġspending": 4773,
      "Ġstrawberries": 4774,
      "Ġolive": 4775,
      "Ġyawned": 4776,
      "Ġrevealed": 4777,
      "Ġsuperhero": 4778,
      "Ġstruggling": 4779,
      "Ġfascinated": 4780,
      "Ġapplaud": 4781,
      "Ġeffort": 4782,
      "Ġthermometer": 4783,
      "ging": 4784,
      "ian": 4785,
      "nies": 4786,
      "Ġsir": 4787,
      "Ġtoes": 4788,
      "Ġwags": 4789,
      "Ġcre": 4790,
      "Ġoasis": 4791,
      "Ġgir": 4792,
      "Ġgust": 4793,
      "ppers": 4794,
      "aded": 4795,
      "These": 4796,
      "alph": 4797,
      "Ġscur": 4798,
      "Ġalive": 4799,
      "ases": 4800,
      "iform": 4801,
      "Ġblouse": 4802,
      "Ġpoison": 4803,
      "antly": 4804,
      "Ġmyself": 4805,
      "Ġquit": 4806,
      "Ġslip": 4807,
      "izes": 4808,
      "Ġkindly": 4809,
      "ĠCindy": 4810,
      "Ġglo": 4811,
      "Ġbravely": 4812,
      "Ġuniform": 4813,
      "Ġacorn": 4814,
      "Ġdifferen": 4815,
      "Ġfrogs": 4816,
      "Ġhills": 4817,
      "Ġcrash": 4818,
      "Ġelephants": 4819,
      "Ġcooked": 4820,
      "Ġcartoon": 4821,
      "Ġscratch": 4822,
      "Ġstrip": 4823,
      "Ġpedal": 4824,
      "Ġdisagreed": 4825,
      "Ġapproached": 4826,
      "Ġchirped": 4827,
      "Al": 4828,
      "All": 4829,
      "Ok": 4830,
      "ah": 4831,
      "bers": 4832,
      "drobe": 4833,
      "ple": 4834,
      "Ġtide": 4835,
      "Ġfut": 4836,
      "Ġcaul": 4837,
      "Ġmention": 4838,
      "ĠHave": 4839,
      "ĠHenry": 4840,
      "Ġyield": 4841,
      "Ġplates": 4842,
      "sters": 4843,
      "Ġjazz": 4844,
      "ĠJess": 4845,
      "Ġclub": 4846,
      "ifl": 4847,
      "Ġnews": 4848,
      "Ġprop": 4849,
      "Ġoranges": 4850,
      "Ġgrill": 4851,
      "Ġideas": 4852,
      "Ġwardrobe": 4853,
      "aches": 4854,
      "Ġsqueezed": 4855,
      "Ġzigzag": 4856,
      "ĠLetÃ¢": 4857,
      "Ġpoints": 4858,
      "Ġjeep": 4859,
      "Ġmonkeys": 4860,
      "Ġvillag": 4861,
      "Ġpastel": 4862,
      "Ġchairs": 4863,
      "Ġcollected": 4864,
      "Ġzoomed": 4865,
      "Ġmedal": 4866,
      "Ġchewed": 4867,
      "Ġpeanuts": 4868,
      "Ġmemories": 4869,
      "Ġagreement": 4870,
      "Ġmeasuring": 4871,
      "Ġexperience": 4872,
      "Ġshelter": 4873,
      "Ġmelon": 4874,
      "Ġfuture": 4875,
      "Ġcaulifl": 4876,
      "Next": 4877,
      "Susie": 4878,
      "mare": 4879,
      "Ġtooth": 4880,
      "Ġwaist": 4881,
      "Ġlang": 4882,
      "omes": 4883,
      "ani": 4884,
      "anas": 4885,
      "Ġitem": 4886,
      "Ġequ": 4887,
      "Ġstom": 4888,
      "Ġpoke": 4889,
      "Ġkneel": 4890,
      "Ġquack": 4891,
      "ÅĵCan": 4892,
      "Ġremained": 4893,
      "Ġdear": 4894,
      "ĠNext": 4895,
      "Ġsque": 4896,
      "Ġperched": 4897,
      "Ġwarmth": 4898,
      "Ġdresses": 4899,
      "Ġcutting": 4900,
      "Ġmatches": 4901,
      "Ġsailing": 4902,
      "Ġgifts": 4903,
      "Ġsigns": 4904,
      "Ġcows": 4905,
      "Ġpuzzles": 4906,
      "Ġwipe": 4907,
      "Ġbananas": 4908,
      "Ġtrusted": 4909,
      "ĠBuzz": 4910,
      "Ġcostume": 4911,
      "Ġobserve": 4912,
      "Ġrequest": 4913,
      "Ġpanda": 4914,
      "annah": 4915,
      "Ġchirping": 4916,
      "Ġfreezer": 4917,
      "Ġavocado": 4918,
      "Ġgloves": 4919,
      "Ġvillagers": 4920,
      "Ġlangu": 4921,
      "Did": 4922,
      "lvet": 4923,
      "mm": 4924,
      "xc": 4925,
      "Ġsings": 4926,
      "Ġbicy": 4927,
      "Ġda": 4928,
      "Ġdried": 4929,
      "Ġmass": 4930,
      "Ġpages": 4931,
      "Ġost": 4932,
      "iding": 4933,
      "atched": 4934,
      "lend": 4935,
      "Ġstitch": 4936,
      "rich": 4937,
      "ĠBunny": 4938,
      "seek": 4939,
      "ĠMillie": 4940,
      "Ġalright": 4941,
      "ĠWho": 4942,
      "Ġworse": 4943,
      "quito": 4944,
      "ĠDanny": 4945,
      "Ġpeppers": 4946,
      "ÅĵNo": 4947,
      "ÅĵHello": 4948,
      "Ġimmediately": 4949,
      "Ġfastest": 4950,
      "Ġjogging": 4951,
      "Ġzipped": 4952,
      "Ġfiref": 4953,
      "Ġforgotten": 4954,
      "Ġdeeper": 4955,
      "Ġvelvet": 4956,
      "Ġplanted": 4957,
      "Ġspoons": 4958,
      "Ġthrows": 4959,
      "Ġneighbors": 4960,
      "Ġeasily": 4961,
      "ĠOl": 4962,
      "Ġexamined": 4963,
      "Ġweeks": 4964,
      "Ġcrib": 4965,
      "Ġsnapped": 4966,
      "Ġbumped": 4967,
      "ĠTrue": 4968,
      "Ġbrick": 4969,
      "Ġsurrounded": 4970,
      "Ġsimple": 4971,
      "Ġnewspaper": 4972,
      "Ġostrich": 4973,
      "Mar": 4974,
      "Mor": 4975,
      "Ġsizes": 4976,
      "Ġwaff": 4977,
      "Ġlily": 4978,
      "Ġdaisy": 4979,
      "Ġpanc": 4980,
      "Ġshed": 4981,
      "Ġplays": 4982,
      "Ġweighed": 4983,
      "enty": 4984,
      "ĠBeth": 4985,
      "herman": 4986,
      "allow": 4987,
      "ĠIts": 4988,
      "Ġjud": 4989,
      "Ġscooped": 4990,
      "Ġvent": 4991,
      "Ġdownstairs": 4992,
      "Ġpossible": 4993,
      "Ġquiz": 4994,
      "ÅĵWe": 4995,
      "Ġclearing": 4996,
      "Ġjumps": 4997,
      "xture": 4998,
      "Ġnightmare": 4999,
      "Ġpulling": 5000,
      "Ġbathe": 5001,
      "Ġcompany": 5002,
      "Ġsparkles": 5003,
      "Ġplanes": 5004,
      "Ġblankets": 5005,
      "Ġmissile": 5006,
      "Ġchoice": 5007,
      "Ġsalt": 5008,
      "Ġcandles": 5009,
      "Ġfisherman": 5010,
      "Ġencouraged": 5011,
      "Ġreceive": 5012,
      "Ġsausage": 5013,
      "Ġmuffin": 5014,
      "Ġsuffer": 5015,
      "Ġadmiring": 5016,
      "Ġbegin": 5017,
      "Ġcauliflower": 5018,
      "Moral": 5019,
      "Bobby": 5020,
      "Lisa": 5021,
      "Wait": 5022,
      "cage": 5023,
      "ived": 5024,
      "squito": 5025,
      "Ġtug": 5026,
      "Ġsigh": 5027,
      "Ġcastles": 5028,
      "Ġdire": 5029,
      "Ġmittens": 5030,
      "oming": 5031,
      "ĠTina": 5032,
      "ĠSad": 5033,
      "Ġemer": 5034,
      "igi": 5035,
      "ĠLiz": 5036,
      "ĠLee": 5037,
      "Ġupstairs": 5038,
      "Ġlick": 5039,
      "ĠMe": 5040,
      "Ġcliff": 5041,
      "Ġscore": 5042,
      "Ġbirdcage": 5043,
      "ieve": 5044,
      "Ġrang": 5045,
      "Ġflies": 5046,
      "Ġchores": 5047,
      "ĠEach": 5048,
      "isten": 5049,
      "Ġmosquito": 5050,
      "Ġbury": 5051,
      "embers": 5052,
      "Ġremain": 5053,
      "Ġremembers": 5054,
      "Ġkeeping": 5055,
      "hyth": 5056,
      "Ġrested": 5057,
      "Ġtricks": 5058,
      "Ġguit": 5059,
      "ĠFloppy": 5060,
      "Ġbuckle": 5061,
      "Ġhearts": 5062,
      "Ġsprink": 5063,
      "Ġpastels": 5064,
      "ĠChirp": 5065,
      "Ġgrandmother": 5066,
      "Ġtwisted": 5067,
      "Ġpupil": 5068,
      "Ġyogurt": 5069,
      "ĠPeople": 5070,
      "Ġunlock": 5071,
      "Ġargue": 5072,
      "Ġbalancing": 5073,
      "Ġribbon": 5074,
      "Ġrefreshed": 5075,
      "Ġdifference": 5076,
      "Ġmassage": 5077,
      "hythm": 5078,
      "Mike": 5079,
      "Yum": 5080,
      "act": 5081,
      "cense": 5082,
      "house": 5083,
      "ĠV": 5084,
      "Ġtore": 5085,
      "Ġtong": 5086,
      "Ġhomes": 5087,
      "Ġwagging": 5088,
      "Ġlaser": 5089,
      "Ġlumber": 5090,
      "ides": 5091,
      "enny": 5092,
      "lle": 5093,
      "ety": 5094,
      "eside": 5095,
      "utty": 5096,
      "Ġrust": 5097,
      "Ġsore": 5098,
      "Ġweight": 5099,
      "Ġlie": 5100,
      "Ġlicense": 5101,
      "Ġboot": 5102,
      "Ġhelper": 5103,
      "Ġclaw": 5104,
      "icky": 5105,
      "Ġrod": 5106,
      "Ġvac": 5107,
      "Ġsunlight": 5108,
      "ÅĵMommy": 5109,
      "ĠEveryday": 5110,
      "Ġeaten": 5111,
      "Ġsneezed": 5112,
      "Ġhurting": 5113,
      "ĠPaul": 5114,
      "Ġgreedy": 5115,
      "Ġblueberries": 5116,
      "Ġtrapped": 5117,
      "Ġheads": 5118,
      "Ġfollows": 5119,
      "Ġsticky": 5120,
      "Ġfixing": 5121,
      "Ġpress": 5122,
      "avid": 5123,
      "Ġattached": 5124,
      "Ġbreathe": 5125,
      "Ġproblems": 5126,
      "Ġsafety": 5127,
      "ups": 5128,
      "Ġtasks": 5129,
      "Ġsettled": 5130,
      "ĠJulie": 5131,
      "ĠBetty": 5132,
      "Ġscattered": 5133,
      "Ġreverse": 5134,
      "Ġbicycle": 5135,
      "Ġguitar": 5136,
      "Jake": 5137,
      "low": 5138,
      "osed": 5139,
      "vision": 5140,
      "walk": 5141,
      "ĠOnce": 5142,
      "Ġwigg": 5143,
      "edd": 5144,
      "Ġbeside": 5145,
      "Ġfest": 5146,
      "omas": 5147,
      "Ġhanger": 5148,
      "ĠSu": 5149,
      "Ġrush": 5150,
      "Ġonwards": 5151,
      "Ġhappiest": 5152,
      "Ġreaches": 5153,
      "Ġspike": 5154,
      "Ġspaces": 5155,
      "umble": 5156,
      "Your": 5157,
      "Ġcaring": 5158,
      "Ġprune": 5159,
      "Ġdecision": 5160,
      "Ġvest": 5161,
      "anta": 5162,
      "Ġpeach": 5163,
      "Ġshower": 5164,
      "ĠJoy": 5165,
      "Ġwatches": 5166,
      "Ġconf": 5167,
      "ipment": 5168,
      "ĠPat": 5169,
      "Ġtremb": 5170,
      "Ġdrinking": 5171,
      "Ġparts": 5172,
      "Ġcontinue": 5173,
      "Ġmuscles": 5174,
      "Ġmoments": 5175,
      "Ġsparkle": 5176,
      "Ġbottles": 5177,
      "Ġaccom": 5178,
      "Ġbringing": 5179,
      "Ġbouncy": 5180,
      "Ġbeneath": 5181,
      "Ġwhistled": 5182,
      "ĠOr": 5183,
      "Ġkisses": 5184,
      "ĠSomeone": 5185,
      "ĠBefore": 5186,
      "Before": 5187,
      "Ġrides": 5188,
      "Ġmodel": 5189,
      "uzie": 5190,
      "Ġjellyfish": 5191,
      "Ġshadows": 5192,
      "Ġrecognize": 5193,
      "ĠBetsy": 5194,
      "Ġprovide": 5195,
      "Ġcrept": 5196,
      "Ġequipment": 5197,
      "George": 5198,
      "Qu": 5199,
      "ik": 5200,
      "iar": 5201,
      "kins": 5202,
      "nie": 5203,
      "xy": 5204,
      "Ġwool": 5205,
      "Ġheat": 5206,
      "ero": 5207,
      "Ġmug": 5208,
      "Ġpitch": 5209,
      "Ġobe": 5210,
      "Ġoxy": 5211,
      "Ġnone": 5212,
      "Ġnavy": 5213,
      "igned": 5214,
      "Ġsoaring": 5215,
      "riage": 5216,
      "ĠBir": 5217,
      "ĠBig": 5218,
      "Ġroot": 5219,
      "Ġmeowed": 5220,
      "agull": 5221,
      "Ġmakeup": 5222,
      "ĠEllie": 5223,
      "uckily": 5224,
      "Ġmoves": 5225,
      "ÅĵThank": 5226,
      "izing": 5227,
      "izard": 5228,
      "ĠletÃ¢": 5229,
      "ĠRob": 5230,
      "Ġappear": 5231,
      "Ġtalent": 5232,
      "Ġcrunch": 5233,
      "ults": 5234,
      "Ġguy": 5235,
      "Ġmint": 5236,
      "Ġignore": 5237,
      "Ġzooming": 5238,
      "Ġfigured": 5239,
      "Ġhurried": 5240,
      "Ġsupposed": 5241,
      "Ġmarching": 5242,
      "Ġpillows": 5243,
      "Ġjewelry": 5244,
      "Ġprayed": 5245,
      "Ġordered": 5246,
      "Ġselling": 5247,
      "Ġbattery": 5248,
      "ĠBubbles": 5249,
      "Ġachieve": 5250,
      "Ġmenu": 5251,
      "Ġinstruct": 5252,
      "Ġlanguage": 5253,
      "Ġpancakes": 5254,
      "Ġclaws": 5255,
      "Ġvacation": 5256,
      "Ġfestiv": 5257,
      "Ġoxygen": 5258,
      "Not": 5259,
      "Or": 5260,
      "Sad": 5261,
      "do": 5262,
      "men": 5263,
      "udy": 5264,
      "Ġble": 5265,
      "Ġhate": 5266,
      "Ġheel": 5267,
      "Ġmast": 5268,
      "isies": 5269,
      "amb": 5270,
      "Ġrake": 5271,
      "Ġsting": 5272,
      "ĠBuzzy": 5273,
      "chor": 5274,
      "allen": 5275,
      "Ġanchor": 5276,
      "ĠMaggie": 5277,
      "Ġseagull": 5278,
      "Ġspit": 5279,
      "ĠAn": 5280,
      "Ġbrus": 5281,
      "Ġchallen": 5282,
      "Ġlotion": 5283,
      "Ġpearl": 5284,
      "Ġskull": 5285,
      "Ġoverjoy": 5286,
      "Ġburied": 5287,
      "Ġtease": 5288,
      "Ġfamil": 5289,
      "Ġdrain": 5290,
      "Ġwarn": 5291,
      "ĠRobby": 5292,
      "Ġrestore": 5293,
      "Ġbaking": 5294,
      "Ġwallet": 5295,
      "osity": 5296,
      "Ġvisiting": 5297,
      "Ġcaut": 5298,
      "Ġcalend": 5299,
      "Ġbasketball": 5300,
      "Ġpasta": 5301,
      "laire": 5302,
      "Ġinvite": 5303,
      "Ġneighborhood": 5304,
      "Ġdiscovery": 5305,
      "Ġpracticing": 5306,
      "Ġmachines": 5307,
      "Ġjewels": 5308,
      "Ġsliding": 5309,
      "Ġpirates": 5310,
      "Ġprepared": 5311,
      "Ġapologize": 5312,
      "Ġloaded": 5313,
      "affe": 5314,
      "Ġpermit": 5315,
      "Ġtelevision": 5316,
      "Ġcuddle": 5317,
      "omeday": 5318,
      "Ġrecognized": 5319,
      "Ġincluded": 5320,
      "Ġornaments": 5321,
      "Ġgiraffe": 5322,
      "Ġitems": 5323,
      "Ġdaisies": 5324,
      "Ġjudge": 5325,
      "Ġaccompl": 5326,
      "Ġfestival": 5327,
      "Ġoverjoyed": 5328,
      "Ġcalendar": 5329,
      "Kitty": 5330,
      "Pete": 5331,
      "Remember": 5332,
      "Ġtu": 5333,
      "Ġsip": 5334,
      "Ġwid": 5335,
      "Ġtour": 5336,
      "Ġbother": 5337,
      "Ġcable": 5338,
      "Ġdare": 5339,
      "Ġdigg": 5340,
      "Ġmuddy": 5341,
      "imi": 5342,
      "vers": 5343,
      "Ġyucky": 5344,
      "Ġstable": 5345,
      "Ġsheet": 5346,
      "ĠLater": 5347,
      "ĠBird": 5348,
      "Ġwanting": 5349,
      "Ġflav": 5350,
      "Ġchalk": 5351,
      "Ġvet": 5352,
      "bbing": 5353,
      "bbled": 5354,
      "ÅĵDon": 5355,
      "ÅĵOh": 5356,
      "ÅĵWhy": 5357,
      "Ġslap": 5358,
      "Ġbye": 5359,
      "Ġletting": 5360,
      "Ġgrey": 5361,
      "Ġsatis": 5362,
      "Ġshopping": 5363,
      "Ġdrift": 5364,
      "Ġcrashed": 5365,
      "Ġairpl": 5366,
      "Ġpetted": 5367,
      "Ġsidewalk": 5368,
      "Ġbelieved": 5369,
      "Ġmailman": 5370,
      "ĠChr": 5371,
      "Ġfolded": 5372,
      "Ġreminder": 5373,
      "ĠGod": 5374,
      "Ġticket": 5375,
      "Really": 5376,
      "Ġcuddled": 5377,
      "Ġtwigs": 5378,
      "Ġreceived": 5379,
      "Ġargued": 5380,
      "Ġobey": 5381,
      "Ġinstructions": 5382,
      "Ġdigging": 5383,
      "First": 5384,
      "Sometimes": 5385,
      "Yuck": 5386,
      "fied": 5387,
      "oved": 5388,
      "ody": 5389,
      "ĠĠčĊ": 5390,
      "Ġsomeday": 5391,
      "Ġbill": 5392,
      "ays": 5393,
      "ishing": 5394,
      "imy": 5395,
      "ĠHop": 5396,
      "Ġevent": 5397,
      "Ġsoared": 5398,
      "ĠLike": 5399,
      "ĠBun": 5400,
      "Ġlicks": 5401,
      "ĠMat": 5402,
      "Ġspear": 5403,
      "Ġnovel": 5404,
      "Ġroaring": 5405,
      "Ġcoal": 5406,
      "Ġcalls": 5407,
      "Ġreplace": 5408,
      "ĠGigi": 5409,
      "Ġwrites": 5410,
      "Ġwaits": 5411,
      "ĠNot": 5412,
      "Ġmonsters": 5413,
      "ĠKayla": 5414,
      "Ġgiggling": 5415,
      "Ġrespons": 5416,
      "Ġactiv": 5417,
      "Ġstarfish": 5418,
      "Ġstirring": 5419,
      "Ġscru": 5420,
      "Ġpanic": 5421,
      "ĠAlways": 5422,
      "Ġmemory": 5423,
      "ĠJulia": 5424,
      "Ġmeasured": 5425,
      "Ġcurtains": 5426,
      "Ġpunish": 5427,
      "ĠFroggy": 5428,
      "Fluffy": 5429,
      "Ġproperly": 5430,
      "Ġventured": 5431,
      "Ġtongue": 5432,
      "lowly": 5433,
      "edding": 5434,
      "Ġtube": 5435,
      "Exc": 5436,
      "Lola": 5437,
      "Sh": 5438,
      "Welcome": 5439,
      "fit": 5440,
      "lings": 5441,
      "Ġtip": 5442,
      "Ġwizard": 5443,
      "Ġbare": 5444,
      "Ġfed": 5445,
      "Ġlines": 5446,
      "Ġlamb": 5447,
      "Ġcous": 5448,
      "Ġduring": 5449,
      "Ġga": 5450,
      "Ġgain": 5451,
      "Ġgaz": 5452,
      "Ġinch": 5453,
      "Ġbeat": 5454,
      "Ġripped": 5455,
      "Ġripe": 5456,
      "Ġrhythm": 5457,
      "Ġann": 5458,
      "Ġexact": 5459,
      "Ġworries": 5460,
      "usted": 5461,
      "Ġeveryday": 5462,
      "ĠDavid": 5463,
      "Ġanytime": 5464,
      "Ġslice": 5465,
      "Ġstrang": 5466,
      "Ġstruggled": 5467,
      "ĠJacky": 5468,
      "ĠCar": 5469,
      "Ġbrain": 5470,
      "Ġturning": 5471,
      "Ġvoices": 5472,
      "Ġthrilled": 5473,
      "ĠGr": 5474,
      "Ġwaiter": 5475,
      "ĠNutty": 5476,
      "Ġcontain": 5477,
      "Ġtastes": 5478,
      "Ġdarkness": 5479,
      "Ġprec": 5480,
      "Ġspots": 5481,
      "Ġbowed": 5482,
      "Ġanswers": 5483,
      "Ġsitu": 5484,
      "Ġminer": 5485,
      "Ġhorses": 5486,
      "Ġinvit": 5487,
      "Ġcircus": 5488,
      "Ġspiders": 5489,
      "Ġrockets": 5490,
      "Ġlemons": 5491,
      "Ġhurric": 5492,
      "Ġpinched": 5493,
      "Ġleader": 5494,
      "Ġstudying": 5495,
      "Ġcompetition": 5496,
      "Ġcamping": 5497,
      "Ġrubbing": 5498,
      "Ġdiscovering": 5499,
      "Ġolives": 5500,
      "Ġyawn": 5501,
      "Ġsausages": 5502,
      "Ġcountryside": 5503,
      "Ġdisturbed": 5504,
      "Ġbuzzing": 5505,
      "Ġuniverse": 5506,
      "Ġladybug": 5507,
      "Ġlandscape": 5508,
      "ĠChirpy": 5509,
      "!'": 5510,
      "Fr": 5511,
      "Le": 5512,
      "Teddy": 5513,
      "abby": 5514,
      "iers": 5515,
      "jam": 5516,
      "neath": 5517,
      "uby": 5518,
      "uzz": 5519,
      "hest": 5520,
      "Ġtub": 5521,
      "Ġtugged": 5522,
      "Ġwine": 5523,
      "Ġtodd": 5524,
      "Ġtonight": 5525,
      "Ġlung": 5526,
      "Ġcared": 5527,
      "ĠTess": 5528,
      "atie": 5529,
      "Ġnicer": 5530,
      "Ġrow": 5531,
      "Ġsty": 5532,
      "Ġweb": 5533,
      "Ġliqu": 5534,
      "ĠMaddy": 5535,
      "Ġjunk": 5536,
      "Ġclick": 5537,
      "Ġbrings": 5538,
      "Ġlaid": 5539,
      "Ġpeered": 5540,
      "Ġsled": 5541,
      "Ġimage": 5542,
      "Ġracc": 5543,
      "Ġteasing": 5544,
      "Ġremove": 5545,
      "Joey": 5546,
      "ĠRa": 5547,
      "Ġwondering": 5548,
      "Ġworks": 5549,
      "ĠNora": 5550,
      "thank": 5551,
      "Ġbreaking": 5552,
      "Ġcreation": 5553,
      "Ġcatching": 5554,
      "Ġseesaw": 5555,
      "ĠKing": 5556,
      "Ġpaintings": 5557,
      "ĠwasnÃ¢": 5558,
      "Ġcomple": 5559,
      "Ġmustache": 5560,
      "Ġplanned": 5561,
      "Ġmixing": 5562,
      "Ġdoctors": 5563,
      "Ġcoloured": 5564,
      "Ġescap": 5565,
      "Ġmission": 5566,
      "Ġhits": 5567,
      "Ġdrinks": 5568,
      "Ġpassing": 5569,
      "Ġgathering": 5570,
      "Ġserved": 5571,
      "Ġprotected": 5572,
      "Ġtickets": 5573,
      "ĠZoe": 5574,
      "Ġstrike": 5575,
      "Ġguessed": 5576,
      "Ready": 5577,
      "Ġobjects": 5578,
      "Ġmelted": 5579,
      "Ġreveal": 5580,
      "Ġtomatoes": 5581,
      "Ġstudied": 5582,
      "Ġspaceship": 5583,
      "Ġtrembling": 5584,
      "Ġcrunchy": 5585,
      "Ġbillboard": 5586,
      "Ġbarely": 5587,
      "Ġstrangers": 5588,
      "jamas": 5589,
      "Ġliquid": 5590,
      "Ġraccoon": 5591,
      ".'": 5592,
      "Un": 5593,
      "fy": 5594,
      "mble": 5595,
      "oed": 5596,
      "pite": 5597,
      "shing": 5598,
      "Ġx": 5599,
      "Ġfir": 5600,
      "Ġlect": 5601,
      "ĠTiny": 5602,
      "ĠTilly": 5603,
      "ĠSunny": 5604,
      "ĠSanta": 5605,
      "ĠHappy": 5606,
      "Ġinse": 5607,
      "Ġshot": 5608,
      "ĠMiss": 5609,
      "Ġloops": 5610,
      "Ġgirls": 5611,
      "urry": 5612,
      "Ġarea": 5613,
      "omething": 5614,
      "Ġsadness": 5615,
      "Ġchuck": 5616,
      "Ġgotten": 5617,
      "Ġbecoming": 5618,
      "ĠFollow": 5619,
      "Ġoper": 5620,
      "uced": 5621,
      "Ġgrant": 5622,
      "Ġraised": 5623,
      "Ġhardly": 5624,
      "ĠGood": 5625,
      "ĠGary": 5626,
      "Ġwritten": 5627,
      "Ġuncle": 5628,
      "ffic": 5629,
      "Ġbeds": 5630,
      "iously": 5631,
      "Ġtraffic": 5632,
      "ĠSpike": 5633,
      "Ġbites": 5634,
      "itches": 5635,
      "Ġprints": 5636,
      "Ġsteam": 5637,
      "Ġpajamas": 5638,
      "Ġaccidents": 5639,
      "Andy": 5640,
      "Ġexpected": 5641,
      "Ġactually": 5642,
      "Ġkicking": 5643,
      "Ġteaching": 5644,
      "Ġdetermination": 5645,
      "Ġkingdom": 5646,
      "Ġcoats": 5647,
      "Grace": 5648,
      "Ġsights": 5649,
      "Ġsoldiers": 5650,
      "Ġpiles": 5651,
      "eezing": 5652,
      "Ġcomforted": 5653,
      "Ġurged": 5654,
      "Ġsurface": 5655,
      "uctantly": 5656,
      "Ġlabel": 5657,
      "Ġpadd": 5658,
      "Ġmuffins": 5659,
      "Ġcurled": 5660,
      "abel": 5661,
      "Ġbeans": 5662,
      "Ġdemanded": 5663,
      "Ġpurred": 5664,
      "Ġtravell": 5665,
      "Ġscurried": 5666,
      "Ġfirefight": 5667,
      "ĠSuzy": 5668,
      "Ġbleed": 5669,
      "Ġbrushes": 5670,
      "Ġexactly": 5671,
      "Ġprecious": 5672,
      "Ġhurricane": 5673,
      "Ġlecture": 5674,
      "James": 5675,
      "Luckily": 5676,
      "Mmm": 5677,
      "bul": 5678,
      "ex": 5679,
      "tory": 5680,
      "Ġast": 5681,
      "Ġbun": 5682,
      "Ġmall": 5683,
      "Ġoil": 5684,
      "Ġthro": 5685,
      "Ġhers": 5686,
      "igator": 5687,
      "Ġhistory": 5688,
      "ĠyouÃ¢": 5689,
      "ĠLizzy": 5690,
      "idey": 5691,
      "ĠItÃ¢": 5692,
      "Ġloop": 5693,
      "Ġloose": 5694,
      "Ġboom": 5695,
      "Ġoutdo": 5696,
      "Ġoutfit": 5697,
      "Ġexha": 5698,
      "ĠcanÃ¢": 5699,
      "?\",": 5700,
      "Ġalligator": 5701,
      "Ġnodd": 5702,
      "Ġbrid": 5703,
      "Ġago": 5704,
      "Ġgrape": 5705,
      "Ġwilling": 5706,
      "aula": 5707,
      "ÅĵDo": 5708,
      "Ġstruck": 5709,
      "Ġwatered": 5710,
      "Ġcomfy": 5711,
      "Ġofficer": 5712,
      "Ġunderneath": 5713,
      "Ġrocked": 5714,
      "Ġrealize": 5715,
      "Ġtremble": 5716,
      "Ġcuriosity": 5717,
      "Ġrained": 5718,
      "Ġwherever": 5719,
      "Ġprinted": 5720,
      "Ġsteak": 5721,
      "Ġbuildings": 5722,
      "Ġresult": 5723,
      "Ġhotel": 5724,
      "Ġbathrobe": 5725,
      "Ġmouths": 5726,
      "Ġhealed": 5727,
      "Ġwinner": 5728,
      "ĠwouldnÃ¢": 5729,
      "Ġcord": 5730,
      "Ġacted": 5731,
      "Ġentire": 5732,
      "izzie": 5733,
      "Goodbye": 5734,
      "Ġsolut": 5735,
      "ĠHowever": 5736,
      "Ġwisdom": 5737,
      "ophia": 5738,
      "Ġmasks": 5739,
      "Ġbloomed": 5740,
      "Ġtemple": 5741,
      "Ġseason": 5742,
      "Ġmentioned": 5743,
      "aniel": 5744,
      "Ġairplane": 5745,
      "Ġgaze": 5746,
      "Ġfirm": 5747,
      "Ġbunnies": 5748,
      "Ġthroat": 5749,
      "Ġexhausted": 5750,
      "Bet": 5751,
      "Ye": 5752,
      "mel": 5753,
      "pected": 5754,
      "rig": 5755,
      "uke": 5756,
      "Ġsway": 5757,
      "Ġsib": 5758,
      "Ġwedding": 5759,
      "int": 5760,
      "Ġfash": 5761,
      "ities": 5762,
      "itely": 5763,
      "ĠSomething": 5764,
      "amie": 5765,
      "Ġlips": 5766,
      "Ġrele": 5767,
      "ĠMila": 5768,
      "terday": 5769,
      "Ġweren": 5770,
      "Ġsew": 5771,
      "Ġexit": 5772,
      "Ġscient": 5773,
      "Ġflood": 5774,
      "Ġvict": 5775,
      "ÅĵMom": 5776,
      "ÅĵMy": 5777,
      "Ġslimy": 5778,
      "Ġglowed": 5779,
      "ĠPenny": 5780,
      "ĠGreen": 5781,
      "Ġunex": 5782,
      "ĠRalph": 5783,
      "Ġcrumb": 5784,
      "Ġambul": 5785,
      "ĠThomas": 5786,
      "Ġsteel": 5787,
      "Ġpartic": 5788,
      "Ġreluctantly": 5789,
      "Ġdreamt": 5790,
      "Ġmath": 5791,
      "Ġguest": 5792,
      "Ġsecrets": 5793,
      "Bobo": 5794,
      "Ġteaches": 5795,
      "Ġcelebration": 5796,
      "Ġfolding": 5797,
      "perature": 5798,
      "Ġparked": 5799,
      "Ġsilence": 5800,
      "âĤ¬âĢĿ": 5801,
      "Ġvanished": 5802,
      "Ġencourag": 5803,
      "Ġearthqu": 5804,
      "Ġtracks": 5805,
      "Ġunpacked": 5806,
      "Ġtemperature": 5807,
      "Ġachieved": 5808,
      "Ġincrease": 5809,
      "Ġgrocery": 5810,
      "Ġgroceries": 5811,
      "ĠUnfortunately": 5812,
      "Ġacorns": 5813,
      "Ġcartoons": 5814,
      "Ġbeginning": 5815,
      "Ġinvitation": 5816,
      "Ġcompleted": 5817,
      "Ġchuckled": 5818,
      "Ġsiblings": 5819,
      "Ġscientist": 5820,
      "Ġunexpected": 5821,
      "Ġambulance": 5822,
      "Cl": 5823,
      "Happy": 5824,
      "Mittens": 5825,
      "Ro": 5826,
      "aa": 5827,
      "bies": 5828,
      "eed": 5829,
      "ien": 5830,
      "ossible": 5831,
      "rance": 5832,
      "you": 5833,
      "zen": 5834,
      "Ëľ": 5835,
      "Ġbang": 5836,
      "ouch": 5837,
      "Ġcent": 5838,
      "Ġpause": 5839,
      "ĠTues": 5840,
      "Ġgle": 5841,
      "Ġgained": 5842,
      "ĠSim": 5843,
      "ĠSal": 5844,
      "ĠSure": 5845,
      "ĠSuzie": 5846,
      "ĠSlowly": 5847,
      "ĠHannah": 5848,
      "ira": 5849,
      "Ġstem": 5850,
      "ĠBy": 5851,
      "ĠBee": 5852,
      "riends": 5853,
      "inda": 5854,
      "ĠJon": 5855,
      "âĤ¬Ëľ": 5856,
      "Ġsca": 5857,
      "Ġbrushed": 5858,
      "Ġranch": 5859,
      "elle": 5860,
      "Ġhugging": 5861,
      "ĠDid": 5862,
      "ĠDan": 5863,
      "Ġpears": 5864,
      "Ġknowled": 5865,
      "Ġracing": 5866,
      "ĠClaire": 5867,
      "Ġimpossible": 5868,
      "Ġowned": 5869,
      "Ġbedtime": 5870,
      "Ġgreet": 5871,
      "Ġtractor": 5872,
      "Ġimportance": 5873,
      "ĠSpidey": 5874,
      "Ġfrozen": 5875,
      "though": 5876,
      "Ġbabies": 5877,
      "Ġwooden": 5878,
      "Ġarrive": 5879,
      "Ġhated": 5880,
      "Ġmuscle": 5881,
      "Ġtablet": 5882,
      "Ġseems": 5883,
      "angled": 5884,
      "Ġneighbours": 5885,
      "Ġcreamy": 5886,
      "Ġpotion": 5887,
      "Ġfreeze": 5888,
      "Ġtune": 5889,
      "Ġcollection": 5890,
      "Ġsafer": 5891,
      "Ġvalued": 5892,
      "Ġnetwork": 5893,
      "Ġdinosaurs": 5894,
      "Ġsilent": 5895,
      "However": 5896,
      "Ġsquares": 5897,
      "Ġsnap": 5898,
      "Ġbatteries": 5899,
      "Ġpotatoes": 5900,
      "Ġcompletely": 5901,
      "Ġbricks": 5902,
      "Ġcostumes": 5903,
      "Ġbalanced": 5904,
      "Ġpunished": 5905,
      "gency": 5906,
      "Ġfluttered": 5907,
      "Ġhesitated": 5908,
      "Ġcrowd": 5909,
      "Ġintroduced": 5910,
      "Ġkneeled": 5911,
      "ĠOlive": 5912,
      "Ġdirection": 5913,
      "Ġconfident": 5914,
      "Ġchallenge": 5915,
      "ÅĵDonÃ¢": 5916,
      "Ġsituation": 5917,
      "Ġoutdoors": 5918,
      "rigued": 5919,
      "Ġparticular": 5920,
      "ĠTuesday": 5921,
      "Ġknowledge": 5922,
      "Kate": 5923,
      "Toby": 5924,
      "fire": 5925,
      "mas": 5926,
      "riger": 5927,
      "vin": 5928,
      "wo": 5929,
      "ĠYes": 5930,
      "Ġtig": 5931,
      "Ġsi": 5932,
      "Ġsix": 5933,
      "Ġsense": 5934,
      "Ġwow": 5935,
      "Ġwound": 5936,
      "Ġhi": 5937,
      "Ġfet": 5938,
      "Ġstare": 5939,
      "sting": 5940,
      "Ġshock": 5941,
      "Ġwhip": 5942,
      "htray": 5943,
      "Ġrelease": 5944,
      "Ġashtray": 5945,
      "ĠMimi": 5946,
      "ĠJe": 5947,
      "Ġchases": 5948,
      "Ġblood": 5949,
      "Ġcomm": 5950,
      "Ġpretti": 5951,
      "aker": 5952,
      "emma": 5953,
      "Ġbrand": 5954,
      "Ġsnatched": 5955,
      "Ġchef": 5956,
      "cts": 5957,
      "Ġstaying": 5958,
      "Ġexplorer": 5959,
      "Ġyelling": 5960,
      "ĠNick": 5961,
      "Ġcontro": 5962,
      "Ġopening": 5963,
      "Ġforgi": 5964,
      "Ġsweets": 5965,
      "Ġprinter": 5966,
      "Ġcreating": 5967,
      "Ġdarker": 5968,
      "Ġrelief": 5969,
      "ĠEmmy": 5970,
      "avi": 5971,
      "Ġplanet": 5972,
      "Ġsisters": 5973,
      "Ġreaching": 5974,
      "Ġdragons": 5975,
      "Ġdeser": 5976,
      "Ġpigs": 5977,
      "Ġactions": 5978,
      "Ġcelebrating": 5979,
      "ĠStar": 5980,
      "Ġmountains": 5981,
      "Ġmatching": 5982,
      "Ġpouring": 5983,
      "Ġpoliceman": 5984,
      "Ġcrackers": 5985,
      "Ġworms": 5986,
      "Ġtwirling": 5987,
      "Ġgracefully": 5988,
      "ĠPepper": 5989,
      "Ġrefriger": 5990,
      "ĠMikey": 5991,
      "Ġpowers": 5992,
      "Ġunlocked": 5993,
      "Ġsandcastles": 5994,
      "Ġtricky": 5995,
      "Ġcurly": 5996,
      "ĠRobbie": 5997,
      "Ġrepeats": 5998,
      "Tweety": 5999,
      "Ġfireworks": 6000,
      "ĠJessie": 6001,
      "Ġwaffles": 6002,
      "Ġemergency": 6003,
      "Ġactivities": 6004,
      "Ġgazed": 6005,
      "Ġmineral": 6006,
      "Ġfirefighters": 6007,
      "Ġbridges": 6008,
      "melia": 6009,
      "Ġearthquake": 6010,
      "Ġtigers": 6011,
      "Ġprettiest": 6012,
      "Ġrefrigerator": 6013,
      "Ah": 6014,
      "Alex": 6015,
      "Bella": 6016,
      "Days": 6017,
      "Even": 6018,
      "Pe": 6019,
      "Rachel": 6020,
      "baby": 6021,
      "bric": 6022,
      "gers": 6023,
      "ippy": 6024,
      "nes": 6025,
      "uri": 6026,
      "Ġ1": 6027,
      "Ġinde": 6028,
      "hell": 6029,
      "Ġaff": 6030,
      "ednes": 6031,
      "Ġbones": 6032,
      "Ġfile": 6033,
      "Ġcal": 6034,
      "Ġmi": 6035,
      "arter": 6036,
      "arling": 6037,
      "ann": 6038,
      "ĠThese": 6039,
      "oni": 6040,
      "Ġstaring": 6041,
      "Ġsobbed": 6042,
      "ĠLinda": 6043,
      "Ġsmarter": 6044,
      "Ġloving": 6045,
      "Ġspill": 6046,
      "ĠJune": 6047,
      "Ġknelt": 6048,
      "Ġleap": 6049,
      "opes": 6050,
      "Ġscra": 6051,
      "ason": 6052,
      "ĠWednes": 6053,
      "Ġwhatever": 6054,
      "Ġfabric": 6055,
      "ĠEarth": 6056,
      "istmas": 6057,
      "ĠFriends": 6058,
      "Ġintrigued": 6059,
      "Ġhowever": 6060,
      "ÅĵThis": 6061,
      "iona": 6062,
      "Ġunderground": 6063,
      "Ġconc": 6064,
      "Ġconn": 6065,
      "Ġshoulders": 6066,
      "bee": 6067,
      "Ġunf": 6068,
      "Ġuns": 6069,
      "Ġunited": 6070,
      "Ġcolored": 6071,
      "Ġclimbs": 6072,
      "Ġusually": 6073,
      "Ġzero": 6074,
      "Ġrule": 6075,
      "Ġours": 6076,
      "Ġgrassy": 6077,
      "Ġfilling": 6078,
      "Ġfrosting": 6079,
      "ths": 6080,
      "ĠDoggy": 6081,
      "oline": 6082,
      "Ġcupc": 6083,
      "Ġwinning": 6084,
      "Ġpockets": 6085,
      "Ġinviting": 6086,
      "Ġrespond": 6087,
      "Ġentrance": 6088,
      "Ġburst": 6089,
      "Ġsafari": 6090,
      "Ġtrips": 6091,
      "Ġdiving": 6092,
      "Ġclowns": 6093,
      "Ġgrandbaby": 6094,
      "Ġrecording": 6095,
      "Ġrescued": 6096,
      "Ġcampfire": 6097,
      "Ġlollipops": 6098,
      "Ġencourage": 6099,
      "Ġnails": 6100,
      "Ġseconds": 6101,
      "ÅĵYouÃ¢": 6102,
      "Ġpatterns": 6103,
      "Charlie": 6104,
      "Ġherbs": 6105,
      "Ġdisagree": 6106,
      "Ġseashell": 6107,
      "Ġsucceeded": 6108,
      "Ġtornado": 6109,
      "Mrs": 6110,
      "Ġitchy": 6111,
      "ĠUncle": 6112,
      "Ġapplauded": 6113,
      "Maria": 6114,
      "allows": 6115,
      "Quack": 6116,
      "ĠBirdy": 6117,
      "Ġcautiously": 6118,
      "Ġsatisfied": 6119,
      "ĠChristmas": 6120,
      "Ġscrubbed": 6121,
      "Ġtoddler": 6122,
      "Ġstyle": 6123,
      "ĠRabbit": 6124,
      "Ġescaped": 6125,
      "Unfortunately": 6126,
      "Ġpaddled": 6127,
      "Ġsolution": 6128,
      "Ġglee": 6129,
      "Ġindeed": 6130,
      "ĠWednesday": 6131,
      "Jul": 6132,
      "Polly": 6133,
      "Rose": 6134,
      "Sandy": 6135,
      "Wh": 6136,
      "ivery": 6137,
      "njoy": 6138,
      "ox": 6139,
      "son": 6140,
      "Ġtangled": 6141,
      "Ġlugg": 6142,
      "Ġcott": 6143,
      "ern": 6144,
      "Ġdied": 6145,
      "Ġdarling": 6146,
      "Ġmater": 6147,
      "Ġmister": 6148,
      "Ġpony": 6149,
      "Ġeast": 6150,
      "Ġbend": 6151,
      "Ġbeam": 6152,
      "Ġbeard": 6153,
      "Ġstair": 6154,
      "rior": 6155,
      "Ġplenty": 6156,
      "ntil": 6157,
      "Ġlied": 6158,
      "ugs": 6159,
      "Ġlosing": 6160,
      "ica": 6161,
      "Ġmeow": 6162,
      "asm": 6163,
      "Ġflames": 6164,
      "Ġchop": 6165,
      "bbly": 6166,
      "ĠFirst": 6167,
      "obble": 6168,
      "ÅĵNow": 6169,
      "Ġslapped": 6170,
      "Ġsorting": 6171,
      "Ġstrings": 6172,
      "Ġbravery": 6173,
      "Ġsnuck": 6174,
      "Ġteased": 6175,
      "Ġtexture": 6176,
      "ĠPandy": 6177,
      "Ġreplac": 6178,
      "Ġkeeps": 6179,
      "Ġwarrior": 6180,
      "ĠGet": 6181,
      "ĠRuby": 6182,
      "Ġwonders": 6183,
      "acy": 6184,
      "Ġlistens": 6185,
      "Ġcontest": 6186,
      "Ġbeha": 6187,
      "Ġresting": 6188,
      "Ġourselves": 6189,
      "Ġpupp": 6190,
      "Ġsingle": 6191,
      "Ġtouching": 6192,
      "Ġpretends": 6193,
      "ĠKatie": 6194,
      "Ġtails": 6195,
      "ĠwonÃ¢": 6196,
      "Ġdesert": 6197,
      "Ġexpect": 6198,
      "Ġpaths": 6199,
      "Ġshrinking": 6200,
      "Ġorganizing": 6201,
      "ĠOllie": 6202,
      "ĠStop": 6203,
      "Ġpleasure": 6204,
      "Ġspraying": 6205,
      "Ġcracked": 6206,
      "Grandpa": 6207,
      "Ġadding": 6208,
      "Ġperformance": 6209,
      "Ġtickle": 6210,
      "Ġhorns": 6211,
      "ÅĵWhatÃ¢": 6212,
      "ĠZoomy": 6213,
      "Ġpebbles": 6214,
      "Ġreply": 6215,
      "Ġstamps": 6216,
      "Ġpenguins": 6217,
      "Ġphotos": 6218,
      "Ġexperien": 6219,
      "ĠRoger": 6220,
      "Ġdelivered": 6221,
      "Annie": 6222,
      "Ġfluttering": 6223,
      "Ġornament": 6224,
      "Ġdusty": 6225,
      "Ġdiscuss": 6226,
      "Ġintroduce": 6227,
      "Ġstomach": 6228,
      "Ġsprinkles": 6229,
      "ĠRobin": 6230,
      "Ġaccomplish": 6231,
      "Ġannoy": 6232,
      "ĠGranny": 6233,
      "Ġvictory": 6234,
      "Ġcrumbs": 6235,
      "Ġcontrol": 6236,
      "Ġluggage": 6237,
      "Ġmateri": 6238,
      "Ġreplaced": 6239,
      "Ducky": 6240,
      "Ralph": 6241,
      "ae": 6242,
      "aven": 6243,
      "come": 6244,
      "mallows": 6245,
      "od": 6246,
      "sie": 6247,
      "uly": 6248,
      "vas": 6249,
      "yes": 6250,
      "Ġti": 6251,
      "Ġaer": 6252,
      "Ġbank": 6253,
      "Ġfuzzy": 6254,
      "Ġdared": 6255,
      "Ġmice": 6256,
      "Ġmarsh": 6257,
      "ishes": 6258,
      "iled": 6259,
      "immer": 6260,
      "Ġeight": 6261,
      "Ġrumble": 6262,
      "Ġstern": 6263,
      "Ġsoak": 6264,
      "Ġsoaked": 6265,
      "ĠLarry": 6266,
      "ĠLizzie": 6267,
      "ĠBoth": 6268,
      "ĠBoun": 6269,
      "Ġshall": 6270,
      "ĠMany": 6271,
      "Ġgoals": 6272,
      "Ġspong": 6273,
      "Ġspook": 6274,
      "ĠAbbie": 6275,
      "Ġtheirs": 6276,
      "Ġaren": 6277,
      "Ġcans": 6278,
      "Ġbacked": 6279,
      "Ġnoon": 6280,
      "opl": 6281,
      "opsy": 6282,
      "Ġscaring": 6283,
      "Ġfault": 6284,
      "Ġchip": 6285,
      "ĠDe": 6286,
      "ĠDot": 6287,
      "Ġtreehouse": 6288,
      "ĠFiona": 6289,
      "Ġgrandp": 6290,
      "Ġtwenty": 6291,
      "Ġbully": 6292,
      "Ġbudge": 6293,
      "iley": 6294,
      "izon": 6295,
      "ĠCo": 6296,
      "Ġlets": 6297,
      "Ġstole": 6298,
      "ĠPaula": 6299,
      "Ġwrist": 6300,
      "Ġdelivery": 6301,
      "Ġworkers": 6302,
      "Ġfoods": 6303,
      "ĠJaney": 6304,
      "Ġzipping": 6305,
      "Ġfiremen": 6306,
      "Afterwards": 6307,
      "Ġpatience": 6308,
      "Ġmagician": 6309,
      "Ġprinting": 6310,
      "Ġswims": 6311,
      "Ġhides": 6312,
      "Ġmatched": 6313,
      "Ġfoxes": 6314,
      "Ġelf": 6315,
      "Ġsecure": 6316,
      "Ġmusician": 6317,
      "Ġplanets": 6318,
      "Ġsits": 6319,
      "Ġproject": 6320,
      "Ġhighest": 6321,
      "Ġnapkins": 6322,
      "Ġhorizon": 6323,
      "Ġrecor": 6324,
      "Ġspeaking": 6325,
      "Ġsource": 6326,
      "Ġbanged": 6327,
      "Ġcape": 6328,
      "Ġdecorated": 6329,
      "Ġprice": 6330,
      "Ġchewing": 6331,
      "Ġcopy": 6332,
      "ĠAnne": 6333,
      "Rex": 6334,
      "Ġrubs": 6335,
      "Ġmelting": 6336,
      "Ġlibrarian": 6337,
      "Ġimproved": 6338,
      "Ġseparated": 6339,
      "Ġshivered": 6340,
      "Ġshivering": 6341,
      "Ġstruggle": 6342,
      "ĠSharing": 6343,
      "Ġweeping": 6344,
      "Ġhallway": 6345,
      "Ġincreased": 6346,
      "Ġtwinkle": 6347,
      "Ġquacked": 6348,
      "Ġsquealed": 6349,
      "ĠSadly": 6350,
      "Ġguys": 6351,
      "Ġfamiliar": 6352,
      "Ġcousin": 6353,
      "Ġbleeding": 6354,
      "Ġguests": 6355,
      "Ġencouraging": 6356,
      "Ġsiren": 6357,
      "Ġmixture": 6358,
      "Ġunsure": 6359,
      "Ġresponded": 6360,
      "Ġaeropl": 6361,
      "Ġmarshmallows": 6362,
      "Ġsponge": 6363,
      "Ġspooky": 6364,
      "Ġgrandpare": 6365,
      "An": 6366,
      "Jess": 6367,
      "Maggie": 6368,
      "Maddy": 6369,
      "Sophie": 6370,
      "Tina": 6371,
      "aut": 6372,
      "dri": 6373,
      "go": 6374,
      "len": 6375,
      "rr": 6376,
      "sity": 6377,
      "use": 6378,
      "hello": 6379,
      "Ġsigned": 6380,
      "Ġwink": 6381,
      "Ġbumpy": 6382,
      "Ġfart": 6383,
      "ita": 6384,
      "Ġcust": 6385,
      "Ġheav": 6386,
      "Ġpout": 6387,
      "omers": 6388,
      "Ġocc": 6389,
      "ĠSw": 6390,
      "ĠSund": 6391,
      "onnie": 6392,
      "Ġbelly": 6393,
      "Ġrisk": 6394,
      "Ġropes": 6395,
      "Ġstitches": 6396,
      "ads": 6397,
      "Ġplaytime": 6398,
      "ĠBow": 6399,
      "choo": 6400,
      "ĠAd": 6401,
      "ĠAbby": 6402,
      "Ġcanvas": 6403,
      "Ġallow": 6404,
      "aren": 6405,
      "Ġleast": 6406,
      "Ġfever": 6407,
      "Ġmane": 6408,
      "ĠWin": 6409,
      "Ġcarriage": 6410,
      "Ġflat": 6411,
      "Ġvowed": 6412,
      "ĠDaniel": 6413,
      "Ġpoking": 6414,
      "ĠFurry": 6415,
      "Ġpeel": 6416,
      "Ġtruly": 6417,
      "ÅĵSure": 6418,
      "Ġopin": 6419,
      "Ġsorted": 6420,
      "aky": 6421,
      "Ġrail": 6422,
      "Ġcones": 6423,
      "Ġstolen": 6424,
      "Ġforehead": 6425,
      "Ġkeeper": 6426,
      "ĠJohnson": 6427,
      "Ġremembering": 6428,
      "Ġstorekeeper": 6429,
      "Ġbehavi": 6430,
      "Ġamount": 6431,
      "Ġbaked": 6432,
      "Ġsteep": 6433,
      "Ġsinger": 6434,
      "Ġcolder": 6435,
      "Ġhider": 6436,
      "ĠKelly": 6437,
      "Ġpaintbr": 6438,
      "Ġresults": 6439,
      "ĠFlo": 6440,
      "Ġplanning": 6441,
      "uggle": 6442,
      "Ġjoining": 6443,
      "Ġcaused": 6444,
      "Ġprincesses": 6445,
      "Ġscreaming": 6446,
      "Ġrainbows": 6447,
      "Ġcoral": 6448,
      "Ġinterested": 6449,
      "Ġprotecting": 6450,
      "Ġwipes": 6451,
      "Ġscratched": 6452,
      "Ġmovies": 6453,
      "Ġstripes": 6454,
      "Ġarrows": 6455,
      "Ġpedals": 6456,
      "Ġbumps": 6457,
      "Ġvideos": 6458,
      "Ġcushions": 6459,
      "Ġartist": 6460,
      "Ġavoid": 6461,
      "Ġtempt": 6462,
      "ably": 6463,
      "Ġsuffered": 6464,
      "Ġshelves": 6465,
      "ibly": 6466,
      "Ġstroll": 6467,
      "Ġuniversity": 6468,
      "Ġladybird": 6469,
      "...": 6470,
      "iki": 6471,
      "Ġmaster": 6472,
      "Ġwidened": 6473,
      "Ġdrifted": 6474,
      "Leo": 6475,
      "Ġfirmly": 6476,
      "Ġfashion": 6477,
      "Ġreleased": 6478,
      "Ġscales": 6479,
      "urious": 6480,
      "Ġafford": 6481,
      "Ġaeroplane": 6482,
      "?'": 6483,
      "Boo": 6484,
      "Cindy": 6485,
      "Dave": 6486,
      "During": 6487,
      "Danny": 6488,
      "Hannah": 6489,
      "eep": 6490,
      "gare": 6491,
      "hive": 6492,
      "oor": 6493,
      "rin": 6494,
      "sc": 6495,
      "tier": 6496,
      "tuce": 6497,
      "uppy": 6498,
      "yan": 6499,
      "hee": 6500,
      "Ġty": 6501,
      "Ġting": 6502,
      "Ġtil": 6503,
      "Ġtax": 6504,
      "Ġsides": 6505,
      "Ġfara": 6506,
      "Ġfreed": 6507,
      "itud": 6508,
      "Ġcakes": 6509,
      "Ġden": 6510,
      "ĠSophia": 6511,
      "Ġthir": 6512,
      "Ġthird": 6513,
      "veral": 6514,
      "espite": 6515,
      "owers": 6516,
      "utter": 6517,
      "igning": 6518,
      "Ġbeads": 6519,
      "Ġramp": 6520,
      "Ġrising": 6521,
      "Ġstall": 6522,
      "rick": 6523,
      "ĠListen": 6524,
      "ĠLuke": 6525,
      "ading": 6526,
      "ades": 6527,
      "ĠBye": 6528,
      "ĠBinky": 6529,
      "Ġshown": 6530,
      "Ġshave": 6531,
      "Ġshined": 6532,
      "Ġreass": 6533,
      "Ġneare": 6534,
      "Ġneither": 6535,
      "Ġseveral": 6536,
      "Ġspikes": 6537,
      "ĠAng": 6538,
      "ĠAmelia": 6539,
      "icia": 6540,
      "Ġroots": 6541,
      "asp": 6542,
      "Ġsomebody": 6543,
      "ĠWatch": 6544,
      "using": 6545,
      "Ġdecides": 6546,
      "ĠEnjoy": 6547,
      "Ġswirl": 6548,
      "Ġswooped": 6549,
      "ĠFuzzy": 6550,
      "Ġknees": 6551,
      "Ġgrabbing": 6552,
      "obody": 6553,
      "ÅĵHi": 6554,
      "Ġhandful": 6555,
      "Ġprettier": 6556,
      "Ġadult": 6557,
      "Ġadults": 6558,
      "Ġglitter": 6559,
      "Ġargu": 6560,
      "Ġlettuce": 6561,
      "ĠPut": 6562,
      "ĠPuppy": 6563,
      "Ġfocus": 6564,
      "Ġjoking": 6565,
      "Ġrestored": 6566,
      "Ġsweeties": 6567,
      "Ġruining": 6568,
      "Ġsteady": 6569,
      "Ġsnowball": 6570,
      "Ġyesterday": 6571,
      "Ġpennies": 6572,
      "Ġgrowl": 6573,
      "Ġgrowling": 6574,
      "ĠFlopsy": 6575,
      "Ġbeehive": 6576,
      "iggy": 6577,
      "ments": 6578,
      "Ġbuckets": 6579,
      "hog": 6580,
      "Ġmarkers": 6581,
      "Ġmailed": 6582,
      "Ġbreathed": 6583,
      "Ġkeys": 6584,
      "Ġhopeful": 6585,
      "Ġembarrass": 6586,
      "ĠOut": 6587,
      "Ġspreading": 6588,
      "Ġsalty": 6589,
      "Ġroads": 6590,
      "ĠBeing": 6591,
      "Ġlogs": 6592,
      "Ġmayor": 6593,
      "Ġsnakes": 6594,
      "Ġwires": 6595,
      "Ġsurrendered": 6596,
      "Ġcomplained": 6597,
      "ĠUntil": 6598,
      "Ġmagnets": 6599,
      "Ġrewarded": 6600,
      "Ġinclude": 6601,
      "Ġhedgehog": 6602,
      "Ġhesitant": 6603,
      "Ġcobwebs": 6604,
      "Ġsports": 6605,
      "Ġwaffle": 6606,
      "ĠSadie": 6607,
      "ĠMegan": 6608,
      "Ġrusty": 6609,
      "Sadie": 6610,
      "Ġflavor": 6611,
      "Frank": 6612,
      "Ġlungs": 6613,
      "Ġoperation": 6614,
      "Ġgranted": 6615,
      "Ġnodding": 6616,
      "Ġchefs": 6617,
      "Ġseashells": 6618,
      "Ġtipt": 6619,
      "Ġfarther": 6620,
      "Ġoccas": 6621,
      "ĠSunday": 6622,
      "garet": 6623,
      "Ġtaxi": 6624,
      "Ġfaraway": 6625,
      "itude": 6626,
      "Ġthirty": 6627,
      "Ġarguing": 6628,
      "By": 6629,
      "Bun": 6630,
      "Bunny": 6631,
      "Car": 6632,
      "Fred": 6633,
      "Tony": 6634,
      "aired": 6635,
      "band": 6636,
      "ew": 6637,
      "eel": 6638,
      "ibbit": 6639,
      "no": 6640,
      "pit": 6641,
      "the": 6642,
      "vest": 6643,
      "water": 6644,
      "Ġtim": 6645,
      "Ġaut": 6646,
      "Ġwest": 6647,
      "Ġwobble": 6648,
      "Ġtoe": 6649,
      "Ġbars": 6650,
      "Ġbunch": 6651,
      "Ġhoo": 6652,
      "Ġhus": 6653,
      "Ġcast": 6654,
      "Ġdet": 6655,
      "Ġwasted": 6656,
      "Ġpist": 6657,
      "Ġgon": 6658,
      "aty": 6659,
      "ences": 6660,
      "ans": 6661,
      "ona": 6662,
      "Ġthreat": 6663,
      "esome": 6664,
      "Ġrip": 6665,
      "step": 6666,
      "Ġplayroom": 6667,
      "Ġwears": 6668,
      "ĠBoo": 6669,
      "child": 6670,
      "Ġdoves": 6671,
      "Ġnect": 6672,
      "Ġanger": 6673,
      "rying": 6674,
      "Ġloc": 6675,
      "ĠJudy": 6676,
      "iche": 6677,
      "umm": 6678,
      "icked": 6679,
      "ashed": 6680,
      "ĠWally": 6681,
      "iece": 6682,
      "Ġlap": 6683,
      "Ġprank": 6684,
      "Ġhomework": 6685,
      "Ġflap": 6686,
      "Ġdecl": 6687,
      "Ġchoo": 6688,
      "ĠDolly": 6689,
      "Ġyourselves": 6690,
      "Ġpose": 6691,
      "ĠFire": 6692,
      "ĠFox": 6693,
      "Ġpecked": 6694,
      "Ġtwice": 6695,
      "Ġtweet": 6696,
      "Ġquilt": 6697,
      "Ġteasp": 6698,
      "Ġremoved": 6699,
      "ĠPam": 6700,
      "ĠPoppy": 6701,
      "ĠPinky": 6702,
      "Ġdragged": 6703,
      "Ġrocking": 6704,
      "Josh": 6705,
      "ĠRicky": 6706,
      "ĠRiley": 6707,
      "Ġbroom": 6708,
      "Ġrainco": 6709,
      "ĠNana": 6710,
      "ĠNina": 6711,
      "Ġusual": 6712,
      "Ġbeloved": 6713,
      "Ġsticking": 6714,
      "Ġdresser": 6715,
      "Ġblocking": 6716,
      "Ġtricked": 6717,
      "Ġslower": 6718,
      "Ġreads": 6719,
      "Ġpets": 6720,
      "Ġpolishing": 6721,
      "ĠTodd": 6722,
      "ĠFlora": 6723,
      "Ġattack": 6724,
      "Ġdesigned": 6725,
      "Ġpacking": 6726,
      "Ġexpress": 6727,
      "Ġmisses": 6728,
      "Ġfits": 6729,
      "Ġburrow": 6730,
      "ĠThanks": 6731,
      "Goodnight": 6732,
      "Ġsplashes": 6733,
      "Ġseeker": 6734,
      "Steve": 6735,
      "Ġhonk": 6736,
      "Ġhonked": 6737,
      "Ġblows": 6738,
      "Ġseats": 6739,
      "Ġnervously": 6740,
      "Ġsupplies": 6741,
      "Ġtested": 6742,
      "lsie": 6743,
      "Ġknights": 6744,
      "Ġforks": 6745,
      "Ġperforming": 6746,
      "ĠBruce": 6747,
      "Ġtickled": 6748,
      "Ġsoapy": 6749,
      "ĠZoom": 6750,
      "Ġawesome": 6751,
      "Ġgrandchild": 6752,
      "Ġrepaired": 6753,
      "ĠBluey": 6754,
      "Ġscrewdri": 6755,
      "Ġstretching": 6756,
      "ĠShar": 6757,
      "ĠRover": 6758,
      "Ġrequested": 6759,
      "Ġcomplaining": 6760,
      "Ġdiscussed": 6761,
      "Ġdiscussing": 6762,
      "Ġregretted": 6763,
      "Ġtwinkling": 6764,
      "Ġstomped": 6765,
      "Ġemerged": 6766,
      "Ġresponsible": 6767,
      "Excuse": 6768,
      "Betty": 6769,
      "Clara": 6770,
      "ĠSimon": 6771,
      "Ġforgiven": 6772,
      "Ġcalf": 6773,
      "Ġcupcake": 6774,
      "Ġaccomplishment": 6775,
      "immering": 6776,
      "ĠAdam": 6777,
      "Ġpaintbrush": 6778,
      "Ġtiptoed": 6779,
      "Ġhusband": 6780,
      "Ġpistol": 6781,
      "Ġgonna": 6782,
      "Ġnectar": 6783,
      "Ġteaspoon": 6784,
      "Ġraincoat": 6785,
      "Ġscrewdriver": 6786,
      "Any": 6787,
      "Fin": 6788,
      "For": 6789,
      "Have": 6790,
      "Honey": 6791,
      "Henry": 6792,
      "Kayla": 6793,
      "Milly": 6794,
      "Mira": 6795,
      "Time": 6796,
      "Take": 6797,
      "ael": 6798,
      "cl": 6799,
      "lves": 6800,
      "well": 6801,
      "Ġboo": 6802,
      "Ġlimes": 6803,
      "Ġheaven": 6804,
      "erm": 6805,
      "Ġdaring": 6806,
      "Ġdipped": 6807,
      "Ġdots": 6808,
      "Ġmer": 6809,
      "ĠTe": 6810,
      "ĠTara": 6811,
      "ĠTaking": 6812,
      "Ġgest": 6813,
      "Ġgerm": 6814,
      "Ġsale": 6815,
      "ĠSun": 6816,
      "iment": 6817,
      "ĠHarry": 6818,
      "Ġech": 6819,
      "Ġrus": 6820,
      "Ġonward": 6821,
      "Ġhissed": 6822,
      "Ġyouth": 6823,
      "Ġyounger": 6824,
      "Ġplain": 6825,
      "ĠmomÃ¢": 6826,
      "Ġforty": 6827,
      "unes": 6828,
      "lyn": 6829,
      "allowed": 6830,
      "Ġspy": 6831,
      "Ġexcept": 6832,
      "icorn": 6833,
      "Ġcanes": 6834,
      "Ġhelpers": 6835,
      "Ġfeast": 6836,
      "Ġfaced": 6837,
      "Ġprob": 6838,
      "Ġprunes": 6839,
      "usan": 6840,
      "Ġflight": 6841,
      "usty": 6842,
      "Ġswallowed": 6843,
      "Ġblink": 6844,
      "ista": 6845,
      "Ġtramp": 6846,
      "ÅĵWow": 6847,
      "ÅĵWell": 6848,
      "Ġovercome": 6849,
      "Ġslither": 6850,
      "ilda": 6851,
      "Those": 6852,
      "Ġbraver": 6853,
      "Ġteles": 6854,
      "Ġtearing": 6855,
      "LetÃ¢": 6856,
      "Ġconqu": 6857,
      "ĠPrin": 6858,
      "ĠGemma": 6859,
      "Ġunicorn": 6860,
      "ĠRyan": 6861,
      "acob": 6862,
      "Ġafterwards": 6863,
      "Ġnearly": 6864,
      "Ġstrongest": 6865,
      "Ġtraps": 6866,
      "Ġsquish": 6867,
      "Ġsqueezing": 6868,
      "Ġheading": 6869,
      "Ġruin": 6870,
      "Ġpatted": 6871,
      "Ġdraws": 6872,
      "Ġfroze": 6873,
      "Ġbuying": 6874,
      "Ġdrives": 6875,
      "Ġpapa": 6876,
      "Ġcrashing": 6877,
      "Ġbows": 6878,
      "Ġowners": 6879,
      "ĠKeep": 6880,
      "ichael": 6881,
      "Ġmarriage": 6882,
      "Ġbookshe": 6883,
      "Ġbelieving": 6884,
      "uggling": 6885,
      "Ġprove": 6886,
      "Ġscreams": 6887,
      "Ġforgetting": 6888,
      "Ġmarker": 6889,
      "Ġspoonful": 6890,
      "Ġimagining": 6891,
      "Ġpassen": 6892,
      "Ġmatters": 6893,
      "ĠOw": 6894,
      "Ġcheering": 6895,
      "Ġpleaded": 6896,
      "ĠBeep": 6897,
      "Ġexamining": 6898,
      "Ġprick": 6899,
      "Ġflags": 6900,
      "Ġedges": 6901,
      "ĠLeave": 6902,
      "Ġradishes": 6903,
      "Ġpeeking": 6904,
      "Ġprayer": 6905,
      "Ġsuggest": 6906,
      "Ġawake": 6907,
      "ĠAlan": 6908,
      "ĠAlison": 6909,
      "Ġjackets": 6910,
      "Ġglasses": 6911,
      "Ġpumpkins": 6912,
      "Ġsweep": 6913,
      "Ġscrews": 6914,
      "athan": 6915,
      "Ġmushrooms": 6916,
      "Ġsneaked": 6917,
      "Chloe": 6918,
      "ronaut": 6919,
      "Ġpaddle": 6920,
      "ĠCatty": 6921,
      "Ġincluding": 6922,
      "Ġprovided": 6923,
      "Ġpandas": 6924,
      "Ġribbons": 6925,
      "Ġsneaky": 6926,
      "Ġinstrum": 6927,
      "Ġcheeks": 6928,
      "Ġdelayed": 6929,
      "Ġefforts": 6930,
      "Ġsighs": 6931,
      "ĠVroom": 6932,
      "Ġfamilies": 6933,
      "ĠBirdie": 6934,
      "ĠMatt": 6935,
      "Excited": 6936,
      "ĠCarol": 6937,
      "Ġtravelling": 6938,
      "Ġastronaut": 6939,
      "Yeah": 6940,
      "annon": 6941,
      "Ġconnected": 6942,
      "Quackers": 6943,
      "Ġpuppies": 6944,
      "eeling": 6945,
      "ichelle": 6946,
      "Ġprobably": 6947,
      "Ġtrampoline": 6948,
      "Ġtelescope": 6949,
      "Bu": 6950,
      "Bill": 6951,
      "Ella": 6952,
      "Ha": 6953,
      "Hop": 6954,
      "Jerry": 6955,
      "Lilly": 6956,
      "Listen": 6957,
      "Miss": 6958,
      "Paul": 6959,
      "Tr": 6960,
      "belle": 6961,
      "found": 6962,
      "form": 6963,
      "iasm": 6964,
      "mered": 6965,
      "oh": 6966,
      "spe": 6967,
      "ux": 6968,
      "va": 6969,
      "ÃĤ": 6970,
      "Ġtar": 6971,
      "Ġhour": 6972,
      "Ġhitting": 6973,
      "ouie": 6974,
      "ouble": 6975,
      "Ġfant": 6976,
      "its": 6977,
      "Ġlux": 6978,
      "Ġcough": 6979,
      "Ġcash": 6980,
      "Ġheight": 6981,
      "Ġpouch": 6982,
      "ĠTy": 6983,
      "ĠTake": 6984,
      "ĠTwo": 6985,
      "inger": 6986,
      "arles": 6987,
      "idence": 6988,
      "enise": 6989,
      "anie": 6990,
      "Ġthud": 6991,
      "lem": 6992,
      "ĠHugs": 6993,
      "irts": 6994,
      "Ġinter": 6995,
      "Ġinsp": 6996,
      "cky": 6997,
      "rie": 6998,
      "Ġonions": 6999,
      "Ġplayers": 7000,
      "Ġwept": 7001,
      "united": 7002,
      "ĠBo": 7003,
      "ĠBaa": 7004,
      "sequ": 7005,
      "Ġreunited": 7006,
      "ĠMoon": 7007,
      "ĠMaisy": 7008,
      "ĠMichael": 7009,
      "Ġboards": 7010,
      "ĠJamie": 7011,
      "ops": 7012,
      "ickey": 7013,
      "Ġscamp": 7014,
      "Ġstartled": 7015,
      "Ġcoach": 7016,
      "Ġflown": 7017,
      "Ġgoodnight": 7018,
      "Ġeverybody": 7019,
      "Ġdads": 7020,
      "Ġpeck": 7021,
      "maid": 7022,
      "ÅĵHey": 7023,
      "ÅĵCome": 7024,
      "ÅĵWhere": 7025,
      "ÅĵSee": 7026,
      "Ġhanding": 7027,
      "ollie": 7028,
      "Ġuntie": 7029,
      "Ġsneezing": 7030,
      "Ġsnuggle": 7031,
      "aster": 7032,
      "Ġconfu": 7033,
      "Ġconsequ": 7034,
      "Ġdollhouse": 7035,
      "Ġbadger": 7036,
      "ĠPudd": 7037,
      "Ġcoloring": 7038,
      "ĠRemember": 7039,
      "ĠRani": 7040,
      "ĠSpeed": 7041,
      "ĠNobody": 7042,
      "Ġwarmly": 7043,
      "Ġcouple": 7044,
      "Jacky": 7045,
      "Ġcreativ": 7046,
      "Ġlighter": 7047,
      "Ġlearns": 7048,
      "Ġtallest": 7049,
      "Ġcompared": 7050,
      "Ġpolished": 7051,
      "Ġpolitely": 7052,
      "anging": 7053,
      "ugging": 7054,
      "Ġcausing": 7055,
      "Ġtreated": 7056,
      "Ġpeacefully": 7057,
      "Ġstreets": 7058,
      "ĠWithout": 7059,
      "Ġsolving": 7060,
      "Ġcalmed": 7061,
      "Ġmiles": 7062,
      "Ġhonking": 7063,
      "Ġdived": 7064,
      "ĠBea": 7065,
      "Ġantic": 7066,
      "Ġleading": 7067,
      "Ġwandering": 7068,
      "Ġaddress": 7069,
      "Ġcrabs": 7070,
      "Ġtunnels": 7071,
      "Ġclaps": 7072,
      "Ġwishing": 7073,
      "ĠMargaret": 7074,
      "Jenna": 7075,
      "ĠClown": 7076,
      "Ġpreparing": 7077,
      "ĠAlthough": 7078,
      "Ġrecorded": 7079,
      "Remy": 7080,
      "Ġgems": 7081,
      "Ġleaning": 7082,
      "ĠPeanut": 7083,
      "Ġcomforting": 7084,
      "Ġsniffs": 7085,
      "Ġtires": 7086,
      "Ġpedaled": 7087,
      "Ġsurfing": 7088,
      "Ġsurfboard": 7089,
      "years": 7090,
      "Ġrepeated": 7091,
      "Ġenthusiasm": 7092,
      "Ġstealing": 7093,
      "Ġcrystals": 7094,
      "rnie": 7095,
      "Ġbuzzed": 7096,
      "Ġrecommended": 7097,
      "Ġadmiration": 7098,
      "Ġspeaker": 7099,
      "Ġrefreshing": 7100,
      "Ġstroked": 7101,
      "Tweetie": 7102,
      "Ġtraveled": 7103,
      "Ġsuperheroes": 7104,
      "Ġscurrying": 7105,
      "ĠJessica": 7106,
      "Ġfirefly": 7107,
      "Ġpupils": 7108,
      "iko": 7109,
      "Sadly": 7110,
      "ĠAnother": 7111,
      "Ġwarnings": 7112,
      "Ġaccomplished": 7113,
      "Ġpunishment": 7114,
      "Ġinsect": 7115,
      "Ġtravelled": 7116,
      "Ġgreeted": 7117,
      "Ġfetch": 7118,
      "ĠJeff": 7119,
      "Ġcommun": 7120,
      "Ġdeserve": 7121,
      "Ġcottage": 7122,
      "Ġexperienced": 7123,
      "Ġannoyed": 7124,
      "Ġsternly": 7125,
      "ĠDotty": 7126,
      "ĠCoco": 7127,
      "Ġgrandparents": 7128,
      "Ġoccasion": 7129,
      "Ġautom": 7130,
      "Ġdeclared": 7131,
      "Ġmermaid": 7132,
      "Ġgesture": 7133,
      "Ġrushing": 7134,
      "Ġbookshelf": 7135,
      "Ġprickly": 7136,
      "Ġfantastic": 7137,
      "Ġscampered": 7138,
      "Ġcreativity": 7139,
      "?!\"": 7140,
      "AA": 7141,
      "Br": 7142,
      "Back": 7143,
      "Buzz": 7144,
      "Ew": 7145,
      "Great": 7146,
      "Jamie": 7147,
      "Papa": 7148,
      "Run": 7149,
      "Some": 7150,
      "Suzie": 7151,
      "Tilly": 7152,
      "Uh": 7153,
      "Whee": 7154,
      "boo": 7155,
      "belt": 7156,
      "bird": 7157,
      "gar": 7158,
      "gain": 7159,
      "hind": 7160,
      "jo": 7161,
      "nk": 7162,
      "ru": 7163,
      "rat": 7164,
      "rily": 7165,
      "rink": 7166,
      "ther": 7167,
      "uing": 7168,
      "wise": 7169,
      "yond": 7170,
      "zie": 7171,
      "Ãĥ": 7172,
      "Ġsy": 7173,
      "ino": 7174,
      "Ġtouc": 7175,
      "Ġbak": 7176,
      "Ġlent": 7177,
      "Ġlined": 7178,
      "Ġlower": 7179,
      "Ġdie": 7180,
      "Ġmunch": 7181,
      "Ġmitten": 7182,
      "Ġpies": 7183,
      "ĠTabby": 7184,
      "Ġge": 7185,
      "ility": 7186,
      "atur": 7187,
      "atches": 7188,
      "Ġsank": 7189,
      "enzie": 7190,
      "ĠSa": 7191,
      "ĠSleep": 7192,
      "ĠSusan": 7193,
      "ley": 7194,
      "ĠHolly": 7195,
      "ĠHoppy": 7196,
      "oto": 7197,
      "cker": 7198,
      "Ġbeyond": 7199,
      "Ġstool": 7200,
      "ppa": 7201,
      "Ġwithin": 7202,
      "ĠthatÃ¢": 7203,
      "storm": 7204,
      "Ġrefu": 7205,
      "Ġkites": 7206,
      "ackenzie": 7207,
      "Ġnotes": 7208,
      "ĠMo": 7209,
      "ĠMag": 7210,
      "ĠMother": 7211,
      "Ġgobbled": 7212,
      "Ġjuggling": 7213,
      "Ġseven": 7214,
      "ĠJelly": 7215,
      "artled": 7216,
      "âĤ¬,": 7217,
      "Ġscent": 7218,
      "Ġscoop": 7219,
      "Ġfears": 7220,
      "ongrat": 7221,
      "Ġnewfound": 7222,
      "ussel": 7223,
      "Ġflas": 7224,
      "ĠYouÃ¢": 7225,
      "ĠElle": 7226,
      "ĠDina": 7227,
      "bbling": 7228,
      "Ġposs": 7229,
      "Ġgrain": 7230,
      "Ġpeep": 7231,
      "obile": 7232,
      "Ġcatches": 7233,
      "Ġexplor": 7234,
      "aura": 7235,
      "ÅĵBut": 7236,
      "ĠEverybody": 7237,
      "Ġwatering": 7238,
      "ĠJose": 7239,
      "ĠJosie": 7240,
      "othy": 7241,
      "Ġeats": 7242,
      "ĠCarl": 7243,
      "Ġbravest": 7244,
      "Ġwobbly": 7245,
      "Ġcub": 7246,
      "Ġfinal": 7247,
      "Ġfinishing": 7248,
      "Ġconvers": 7249,
      "Ġwindy": 7250,
      "Ġthrown": 7251,
      "Ġfond": 7252,
      "ĠRollie": 7253,
      "ĠRiko": 7254,
      "Ġdef": 7255,
      "Ġdev": 7256,
      "Ġyells": 7257,
      "Ġrainy": 7258,
      "Ġfires": 7259,
      "Ġruler": 7260,
      "Ġmonths": 7261,
      "Ġwoodpe": 7262,
      "Ġcreations": 7263,
      "Ġstew": 7264,
      "ĠThatÃ¢": 7265,
      "boat": 7266,
      "Ġbatt": 7267,
      "Ġfairies": 7268,
      "Ġfloors": 7269,
      "ĠKaren": 7270,
      "asha": 7271,
      "ĠGrand": 7272,
      "Ġrolls": 7273,
      "Ġtalks": 7274,
      "iggly": 7275,
      "Ġplans": 7276,
      "Ġhealing": 7277,
      "Ġhealth": 7278,
      "Ġbowls": 7279,
      "Ġdrying": 7280,
      "Ġreturning": 7281,
      "Ġcrawls": 7282,
      "Ġacting": 7283,
      "Ġactive": 7284,
      "Ġchopping": 7285,
      "Ġbandages": 7286,
      "Ġwrapping": 7287,
      "Ġtroubles": 7288,
      "ĠStella": 7289,
      "Ġseatbelt": 7290,
      "Ġwiping": 7291,
      "Ġgenie": 7292,
      "Ġleads": 7293,
      "Ġfrowning": 7294,
      "Ġscratches": 7295,
      "Ġperformed": 7296,
      "Ġpraying": 7297,
      "ippin": 7298,
      "Ġcrowns": 7299,
      "Ġclearly": 7300,
      "Meow": 7301,
      "Ġcombed": 7302,
      "Ġblooming": 7303,
      "Ġunlo": 7304,
      "Ġresisted": 7305,
      "Ġbasement": 7306,
      "Ġartwork": 7307,
      "Ġzebras": 7308,
      "Ġappreciated": 7309,
      "Chirp": 7310,
      "Ġobserved": 7311,
      "ĠIsn": 7312,
      "ĠIsland": 7313,
      "Ġneatly": 7314,
      "Ġpurr": 7315,
      "ĠFrog": 7316,
      "Ġyielded": 7317,
      "Ġdirect": 7318,
      "Mikey": 7319,
      "Ġwiggle": 7320,
      "Ġwiggled": 7321,
      "Ġconfidence": 7322,
      "Quick": 7323,
      "ĠNothing": 7324,
      "ĠHappyland": 7325,
      "ĠGoodbye": 7326,
      "ĠJonas": 7327,
      "Ġexplorers": 7328,
      "Ġconcert": 7329,
      "Ġtextures": 7330,
      "Ġbehaving": 7331,
      "Ġmaterials": 7332,
      "Ġbehavior": 7333,
      "Ġtilted": 7334,
      "Ġlocal": 7335,
      "Ġechoed": 7336,
      "Ġpassengers": 7337,
      "Ġluxu": 7338,
      "Ġconsequences": 7339,
      "Ġautomobile": 7340,
      "rupt": 7341,
      "Ġtouches": 7342,
      "ongratul": 7343,
      "Ġwoodpecker": 7344,
      "--": 7345,
      "Baby": 7346,
      "Fro": 7347,
      "Fine": 7348,
      "Feeling": 7349,
      "Liz": 7350,
      "May": 7351,
      "Millie": 7352,
      "Nina": 7353,
      "Nemo": 7354,
      "Our": 7355,
      "Ted": 7356,
      "Very": 7357,
      "but": 7358,
      "bro": 7359,
      "bank": 7360,
      "boy": 7361,
      "cter": 7362,
      "cie": 7363,
      "eke": 7364,
      "emy": 7365,
      "fly": 7366,
      "father": 7367,
      "hh": 7368,
      "hley": 7369,
      "iana": 7370,
      "just": 7371,
      "ky": 7372,
      "ker": 7373,
      "lay": 7374,
      "mark": 7375,
      "rup": 7376,
      "ulp": 7377,
      "while": 7378,
      "yla": 7379,
      "ylves": 7380,
      "ĠQuackers": 7381,
      "Ġsens": 7382,
      "Ġwre": 7383,
      "initely": 7384,
      "Ġwadd": 7385,
      "itched": 7386,
      "Ġcause": 7387,
      "Ġdam": 7388,
      "Ġmes": 7389,
      "Ġpuff": 7390,
      "Ġpours": 7391,
      "Ġoh": 7392,
      "Ġodd": 7393,
      "ĠTry": 7394,
      "ĠTia": 7395,
      "ĠToto": 7396,
      "Ġgall": 7397,
      "Ġgross": 7398,
      "athy": 7399,
      "Ġsadd": 7400,
      "Ġnine": 7401,
      "ĠSweet": 7402,
      "anwhile": 7403,
      "otted": 7404,
      "Ġev": 7405,
      "Ġease": 7406,
      "Ġund": 7407,
      "oosh": 7408,
      "Ġrather": 7409,
      "Ġsteth": 7410,
      "ĠLaura": 7411,
      "Ġplucked": 7412,
      "Ġweeke": 7413,
      "itted": 7414,
      "ĠBust": 7415,
      "herry": 7416,
      "Ġshoo": 7417,
      "Ġshady": 7418,
      "ĠMel": 7419,
      "ĠMart": 7420,
      "ĠMouse": 7421,
      "ĠMuffy": 7422,
      "ĠMona": 7423,
      "ĠMickey": 7424,
      "ĠgirlÃ¢": 7425,
      "urball": 7426,
      "ĠJason": 7427,
      "ĠJacob": 7428,
      "ĠAc": 7429,
      "ĠAny": 7430,
      "romise": 7431,
      "Ġsculp": 7432,
      "Ġroamed": 7433,
      "ongo": 7434,
      "ĠWas": 7435,
      "ĠWiggly": 7436,
      "Ġage": 7437,
      "Ġranger": 7438,
      "Ġflapping": 7439,
      "ept": 7440,
      "quirrel": 7441,
      "Ġcharge": 7442,
      "Ġchanging": 7443,
      "ĠElsie": 7444,
      "Ġgoodby": 7445,
      "Ġswept": 7446,
      "ĠDory": 7447,
      "ĠDespite": 7448,
      "ĠDenise": 7449,
      "Ġblast": 7450,
      "Ġblond": 7451,
      "Ġposit": 7452,
      "ĠFor": 7453,
      "ively": 7454,
      "Ġskill": 7455,
      "Ġenemy": 7456,
      "Ġhandy": 7457,
      "inkled": 7458,
      "Ġsmallest": 7459,
      "Ġneedles": 7460,
      "Ġflowing": 7461,
      "Thomas": 7462,
      "Ġglimmering": 7463,
      "Ġarr": 7464,
      "Ġstays": 7465,
      "Ġunderwater": 7466,
      "Ġtowels": 7467,
      "Ġconfl": 7468,
      "Ġdolly": 7469,
      "Ġbadge": 7470,
      "ipation": 7471,
      "ĠPippin": 7472,
      "Ġdoorway": 7473,
      "Ġunco": 7474,
      "ĠRain": 7475,
      "ĠRussel": 7476,
      "Ġdeal": 7477,
      "Ġdefe": 7478,
      "Ġjoked": 7479,
      "ĠNathan": 7480,
      "Ġcuriously": 7481,
      "Ġuses": 7482,
      "Ġbelts": 7483,
      "Ġbusiness": 7484,
      "Ġsmelling": 7485,
      "Ġparties": 7486,
      "ĠDog": 7487,
      "Ġdripping": 7488,
      "avin": 7489,
      "Ġmarked": 7490,
      "Ġsailboat": 7491,
      "ĠWhatÃ¢": 7492,
      "Ġjobs": 7493,
      "oscope": 7494,
      "Ġgrowls": 7495,
      "Ġcafe": 7496,
      "Ġplanting": 7497,
      "Ġpots": 7498,
      "Ġdesper": 7499,
      "Ġdespite": 7500,
      "Ġtownspe": 7501,
      "Ġheartbro": 7502,
      "Ġwinked": 7503,
      "Ġalongside": 7504,
      "Ġsprang": 7505,
      "ails": 7506,
      "Ġbreathing": 7507,
      "Ġlifting": 7508,
      "Ġafar": 7509,
      "Ġrobots": 7510,
      "Ġchopped": 7511,
      "Ġreminding": 7512,
      "Ġcowboy": 7513,
      "Ġdisappoint": 7514,
      "Ġcalmly": 7515,
      "Everything": 7516,
      "Ġfootstep": 7517,
      "Ġdriveway": 7518,
      "Ġmotion": 7519,
      "Ġstirs": 7520,
      "ĠBecky": 7521,
      "Ġtidying": 7522,
      "Todd": 7523,
      "Ġswans": 7524,
      "Ġwealth": 7525,
      "Ġguns": 7526,
      "ĠClar": 7527,
      "ĠClumsy": 7528,
      "Ġgrandfather": 7529,
      "Ġmisch": 7530,
      "ĠBloom": 7531,
      "Ġcovers": 7532,
      "Ġtwisting": 7533,
      "rops": 7534,
      "ĠAlong": 7535,
      "Ġborrowed": 7536,
      "Ġleopards": 7537,
      "Ġbeetles": 7538,
      "Ġdesigns": 7539,
      "Ġoysters": 7540,
      "faction": 7541,
      "Ġfilms": 7542,
      "Ġvanilla": 7543,
      "Ġrefle": 7544,
      "ĠTrista": 7545,
      "ĠFinny": 7546,
      "Ġinsisting": 7547,
      "Ġbeeped": 7548,
      "Ġlending": 7549,
      "ĠShannon": 7550,
      "affes": 7551,
      "Ġdelivering": 7552,
      "Ġquarreling": 7553,
      "ĠIsabel": 7554,
      "Ġsurroundings": 7555,
      "Ġwhispering": 7556,
      "Ġstudents": 7557,
      "Ġtwinkled": 7558,
      "Ġchatter": 7559,
      "ĠMaya": 7560,
      "Ġgiraffes": 7561,
      "Ġrustling": 7562,
      "ĠPatrick": 7563,
      "ĠBirthday": 7564,
      "Ġmasterp": 7565,
      "Ġsatisfaction": 7566,
      "ĠChris": 7567,
      "Ġobeyed": 7568,
      "ĠMatty": 7569,
      "Ġcousins": 7570,
      "Freddy": 7571,
      "Ġswayed": 7572,
      "Ġcenter": 7573,
      "ĠDebby": 7574,
      "Ġrecorder": 7575,
      "Ġheavier": 7576,
      "Ġpouted": 7577,
      "Ġrisks": 7578,
      "Ġopinion": 7579,
      "Ġfreedom": 7580,
      "Ġnearest": 7581,
      "Ġtimer": 7582,
      "Ġgerms": 7583,
      "Ġconquered": 7584,
      "Ġsquishy": 7585,
      "Ġsuggestion": 7586,
      "Ġtarget": 7587,
      "Ġanticipation": 7588,
      "Ġsyrup": 7589,
      "Ġbakery": 7590,
      "Ġpeeped": 7591,
      "Ġexploration": 7592,
      "Ġdefinitely": 7593,
      "Ġluxury": 7594,
      "ylvester": 7595,
      "Ġmesmer": 7596,
      "Ġstethoscope": 7597,
      "Ġweekend": 7598,
      "ĠBuster": 7599,
      "Ġsculpture": 7600,
      "Ġgoodbyes": 7601,
      "Ġtownspeople": 7602,
      "Ġheartbroken": 7603,
      "Ġfootsteps": 7604,
      "!'.": 7605,
      "Abby": 7606,
      "Abigail": 7607,
      "Bad": 7608,
      "Claire": 7609,
      "Dear": 7610,
      "Harry": 7611,
      "Kim": 7612,
      "Mat": 7613,
      "Mimi": 7614,
      "Out": 7615,
      "Rob": 7616,
      "Sc": 7617,
      "Sophia": 7618,
      "Tiny": 7619,
      "Yummy": 7620,
      "book": 7621,
      "crow": 7622,
      "hins": 7623,
      "lers": 7624,
      "munk": 7625,
      "mates": 7626,
      "nif": 7627,
      "rum": 7628,
      "site": 7629,
      "tons": 7630,
      "vince": 7631,
      "wig": 7632,
      "zing": 7633,
      "ĠY": 7634,
      "Ġtuck": 7635,
      "Ġtant": 7636,
      "Ġties": 7637,
      "Ġtipped": 7638,
      "Ġaud": 7639,
      "Ġwins": 7640,
      "Ġhood": 7641,
      "rees": 7642,
      "Ġfain": 7643,
      "Ġfare": 7644,
      "Ġfif": 7645,
      "Ġfaded": 7646,
      "Ġcrew": 7647,
      "Ġcongratul": 7648,
      "eri": 7649,
      "ering": 7650,
      "Ġdep": 7651,
      "Ġmur": 7652,
      "Ġopp": 7653,
      "ĠTor": 7654,
      "arper": 7655,
      "ids": 7656,
      "atitude": 7657,
      "enel": 7658,
      "Ġnast": 7659,
      "Ġhab": 7660,
      "ĠSid": 7661,
      "ĠSorry": 7662,
      "ĠSquirrel": 7663,
      "ĠSylvester": 7664,
      "aning": 7665,
      "anes": 7666,
      "orful": 7667,
      "onished": 7668,
      "llen": 7669,
      "llow": 7670,
      "leaning": 7671,
      "ooking": 7672,
      "ĠLi": 7673,
      "ĠLove": 7674,
      "unched": 7675,
      "ittered": 7676,
      "ĠBri": 7677,
      "ĠBumpy": 7678,
      "ĠBonnie": 7679,
      "ĠBongo": 7680,
      "ching": 7681,
      "endy": 7682,
      "Ġdod": 7683,
      "Ġreason": 7684,
      "ĠMan": 7685,
      "ĠMindy": 7686,
      "ĠMicky": 7687,
      "ĠMira": 7688,
      "ĠMichelle": 7689,
      "ĠMeri": 7690,
      "Ġjars": 7691,
      "Ġspices": 7692,
      "indrops": 7693,
      "ĠJet": 7694,
      "ĠJana": 7695,
      "Ġexch": 7696,
      "Ġbackwards": 7697,
      "Ġclues": 7698,
      "Ġleather": 7699,
      "Ġlevers": 7700,
      "Ġmemb": 7701,
      "Ġbru": 7702,
      "ĠWell": 7703,
      "ĠWater": 7704,
      "Ġfact": 7705,
      "Ġfailed": 7706,
      "ievous": 7707,
      "ĠButtons": 7708,
      "Ġcond": 7709,
      "Ġcode": 7710,
      "Ġwhoever": 7711,
      "Ġchara": 7712,
      "Ġchips": 7713,
      "ĠExc": 7714,
      "ĠErnie": 7715,
      "Ġgoodies": 7716,
      "ĠDoug": 7717,
      "ĠDiana": 7718,
      "Ġthanking": 7719,
      "Ġcares": 7720,
      "antelle": 7721,
      "Ġthoughts": 7722,
      "aps": 7723,
      "aple": 7724,
      "Ġpeas": 7725,
      "retty": 7726,
      "Ġtrotted": 7727,
      "Ġtwin": 7728,
      "ĠMaxi": 7729,
      "ÅĵThe": 7730,
      "ÅĵMaybe": 7731,
      "ÅĵOf": 7732,
      "ÅĵMummy": 7733,
      "Ġwaters": 7734,
      "ĠJackÃ¢": 7735,
      "Ġbeaver": 7736,
      "Ġuntied": 7737,
      "Ġgratitude": 7738,
      "Ġraindrops": 7739,
      "ĠChe": 7740,
      "ĠCol": 7741,
      "ĠCherry": 7742,
      "ĠAnnabelle": 7743,
      "Ġcleared": 7744,
      "Ġfins": 7745,
      "astated": 7746,
      "Ġconvince": 7747,
      "ipes": 7748,
      "ĠPit": 7749,
      "ĠPip": 7750,
      "ĠPoor": 7751,
      "Ġwrinkled": 7752,
      "Ġunw": 7753,
      "Ġdisob": 7754,
      "ĠRita": 7755,
      "ĠRusty": 7756,
      "acle": 7757,
      "sol": 7758,
      "ĠSpe": 7759,
      "Ġsquaw": 7760,
      "Ġbrightest": 7761,
      "ĠAshley": 7762,
      "Ġnights": 7763,
      "Ġamong": 7764,
      "Ġsweetest": 7765,
      "Ġsandy": 7766,
      "Ġsandpit": 7767,
      "Ġblocked": 7768,
      "Ġdrawn": 7769,
      "Ġcuts": 7770,
      "Ġpromises": 7771,
      "shadow": 7772,
      "ĠAfterwards": 7773,
      "rench": 7774,
      "Ġtables": 7775,
      "Ġsnowfl": 7776,
      "Ġsnowmen": 7777,
      "Ġpointy": 7778,
      "Ġpetal": 7779,
      "Ġpetting": 7780,
      "Ġunderstands": 7781,
      "Ġcloudy": 7782,
      "Ġjoyful": 7783,
      "Ġjoyfully": 7784,
      "Ġguide": 7785,
      "ĠAllie": 7786,
      "Ġdragonfly": 7787,
      "brina": 7788,
      "Ġshops": 7789,
      "ounced": 7790,
      "Ġmints": 7791,
      "Ġcorals": 7792,
      "Ġaction": 7793,
      "Ġwraps": 7794,
      "Ġrespected": 7795,
      "Ġstorms": 7796,
      "ĠOther": 7797,
      "Ġpuzzled": 7798,
      "Ġcheerfully": 7799,
      "ĠBehind": 7800,
      "Ġcooper": 7801,
      "ceptor": 7802,
      "Ġnecklaces": 7803,
      "Ġcandies": 7804,
      "Ġfeeding": 7805,
      "Ġcrossing": 7806,
      "queak": 7807,
      "Ġdrums": 7808,
      "Ġclassmates": 7809,
      "ĠBrother": 7810,
      "ĠMarc": 7811,
      "Ġawo": 7812,
      "Ġdolphins": 7813,
      "Ġpanicked": 7814,
      "Ġapologised": 7815,
      "Ġcovering": 7816,
      "ĠAli": 7817,
      "azzy": 7818,
      "Ġsnail": 7819,
      "Ġpays": 7820,
      "Ġpaying": 7821,
      "Ġvibr": 7822,
      "ĠPeppa": 7823,
      "Ġpanting": 7824,
      "Ġsuits": 7825,
      "Ġvanish": 7826,
      "Ġcomets": 7827,
      "ironment": 7828,
      "Ġenvironment": 7829,
      "Ġsurfer": 7830,
      "Ġkayaking": 7831,
      "Ġdisplayed": 7832,
      "Ġvinegar": 7833,
      "Ġsymbols": 7834,
      "ĠSeeing": 7835,
      "ipsqueak": 7836,
      "Ġsuitcases": 7837,
      "Ġfascinating": 7838,
      "Ġjailer": 7839,
      "Ġsimply": 7840,
      "Ġshovels": 7841,
      "...\"": 7842,
      "Ġpedaling": 7843,
      "Always": 7844,
      "ÅĵWeÃ¢": 7845,
      "Ġsuffering": 7846,
      "Ġlicking": 7847,
      "Ġsprinkled": 7848,
      "Ġtalented": 7849,
      "Ġwider": 7850,
      "Ġflavors": 7851,
      "ĠBunBun": 7852,
      "Ġscrubbing": 7853,
      "Ġinsects": 7854,
      "Betsy": 7855,
      "Peggy": 7856,
      "Ġ10": 7857,
      "Ġleapt": 7858,
      "Ġscraped": 7859,
      "Julia": 7860,
      "Which": 7861,
      "ĠBounce": 7862,
      "ĠBouncy": 7863,
      "Ġchipmunk": 7864,
      "Jessie": 7865,
      "Ġcustomers": 7866,
      "Ġreassured": 7867,
      "Ġsnowballs": 7868,
      "Ġforgiveness": 7869,
      "Ġinstruments": 7870,
      "Excitedly": 7871,
      "Bubbles": 7872,
      "Ġinterrupt": 7873,
      "ĠPudding": 7874,
      "ĠMaggy": 7875,
      "Ġpossess": 7876,
      "Ġdevastated": 7877,
      "Ġdirections": 7878,
      "Ġwaddled": 7879,
      "Ġevil": 7880,
      "ĠAcceptor": 7881,
      "Ġmischievous": 7882,
      "nifer": 7883,
      "Ġtantrum": 7884,
      "Ġaudience": 7885,
      "Ġfarewell": 7886,
      "ĠTori": 7887,
      "enelope": 7888,
      "Ġnasty": 7889,
      "Ġmembers": 7890,
      "Ġcharacter": 7891,
      "'?\"": 7892,
      "Aunt": 7893,
      "Bl": 7894,
      "Beth": 7895,
      "Cat": 7896,
      "Daniel": 7897,
      "Ellie": 7898,
      "Follow": 7899,
      "Hold": 7900,
      "Je": 7901,
      "Jon": 7902,
      "Joy": 7903,
      "Katie": 7904,
      "Like": 7905,
      "Lizzy": 7906,
      "Lulu": 7907,
      "Luke": 7908,
      "Mother": 7909,
      "Mila": 7910,
      "Ruby": 7911,
      "Surpr": 7912,
      "Since": 7913,
      "Santa": 7914,
      "aia": 7915,
      "bel": 7916,
      "bage": 7917,
      "cher": 7918,
      "even": 7919,
      "eens": 7920,
      "jack": 7921,
      "lin": 7922,
      "ns": 7923,
      "nugg": 7924,
      "opped": 7925,
      "pen": 7926,
      "please": 7927,
      "taker": 7928,
      "val": 7929,
      "vant": 7930,
      "vive": 7931,
      "weed": 7932,
      "zed": 7933,
      "zes": 7934,
      "zzy": 7935,
      "Ġ2": 7936,
      "Ġtill": 7937,
      "Ġtumbled": 7938,
      "Ġtips": 7939,
      "Ġais": 7940,
      "Ġaim": 7941,
      "Ġaimed": 7942,
      "Ġsou": 7943,
      "Ġsill": 7944,
      "Ġsomers": 7945,
      "Ġsigning": 7946,
      "Ġwrench": 7947,
      "Ġtheat": 7948,
      "eds": 7949,
      "inch": 7950,
      "Ġtoss": 7951,
      "Ġtossed": 7952,
      "Ġbound": 7953,
      "Ġbaker": 7954,
      "Ġwaking": 7955,
      "Ġwanna": 7956,
      "ouched": 7957,
      "Ġful": 7958,
      "ition": 7959,
      "Ġlens": 7960,
      "Ġhen": 7961,
      "Ġhearing": 7962,
      "Ġdip": 7963,
      "Ġdarl": 7964,
      "Ġmoo": 7965,
      "Ġmerry": 7966,
      "Ġpound": 7967,
      "Ġpiggy": 7968,
      "omer": 7969,
      "ĠTiger": 7970,
      "iliar": 7971,
      "ats": 7972,
      "ĠSay": 7973,
      "ĠSha": 7974,
      "ĠSnugg": 7975,
      "ords": 7976,
      "onse": 7977,
      "onest": 7978,
      "Ġthorn": 7979,
      "lets": 7980,
      "etey": 7981,
      "ĠHood": 7982,
      "ĠHallow": 7983,
      "ĠHello": 7984,
      "ester": 7985,
      "owing": 7986,
      "ckless": 7987,
      "Ġyel": 7988,
      "Ġbeating": 7989,
      "ambled": 7990,
      "amiliar": 7991,
      "Ġriddle": 7992,
      "Ġstung": 7993,
      "Ġsoot": 7994,
      "ĠLucky": 7995,
      "ĠLuckily": 7996,
      "ĠLively": 7997,
      "Ġplopped": 7998,
      "str": 7999,
      "elina": 8000,
      "Ġforce": 8001,
      "ently": 8002,
      "ĠBecause": 8003,
      "ĠBiggy": 8004,
      "Ġshirts": 8005,
      "Ġreapp": 8006,
      "Ġreckless": 8007,
      "Ġkings": 8008,
      "Ġnecess": 8009,
      "Ġass": 8010,
      "Ġaside": 8011,
      "ĠMabel": 8012,
      "ĠMae": 8013,
      "ĠMackenzie": 8014,
      "Ġbond": 8015,
      "ĠTimothy": 8016,
      "Ġouting": 8017,
      "Ġspins": 8018,
      "Ġspills": 8019,
      "ĠAm": 8020,
      "ĠAlf": 8021,
      "artie": 8022,
      "umin": 8023,
      "ightning": 8024,
      "Ġscen": 8025,
      "Ġscri": 8026,
      "Ġroars": 8027,
      "ĠWelcome": 8028,
      "Ġworn": 8029,
      "aged": 8030,
      "ĠwhatÃ¢": 8031,
      "Ġfacing": 8032,
      "Ġotherwise": 8033,
      "ssy": 8034,
      "Ġchilly": 8035,
      "ĠEx": 8036,
      "ĠEric": 8037,
      "Ġswoll": 8038,
      "ĠDepend": 8039,
      "Ġblushed": 8040,
      "Ġcaretaker": 8041,
      "Ġpopper": 8042,
      "anted": 8043,
      "Ġtapping": 8044,
      "ĠFuzz": 8045,
      "Ġhollow": 8046,
      "Ġtraded": 8047,
      "Ġtrading": 8048,
      "Ġexplod": 8049,
      "Ġqueens": 8050,
      "ÅĵA": 8051,
      "ÅĵGood": 8052,
      "ÅĵWho": 8053,
      "ÅĵYay": 8054,
      "ÅĵThanks": 8055,
      "Ġslices": 8056,
      "ĠJoJo": 8057,
      "Ġbubbly": 8058,
      "Ġlongest": 8059,
      "oys": 8060,
      "Ġends": 8061,
      "ĠCari": 8062,
      "Ġcheers": 8063,
      "Ġwobbled": 8064,
      "Ġglittered": 8065,
      "Ġdangers": 8066,
      "Ġowlet": 8067,
      "Ġconcer": 8068,
      "ĠPan": 8069,
      "ĠPap": 8070,
      "ĠPenelope": 8071,
      "Ġforeshadow": 8072,
      "Ġcleaner": 8073,
      "ĠGabby": 8074,
      "ĠGinger": 8075,
      "Ġcloses": 8076,
      "ĠRoo": 8077,
      "ĠRich": 8078,
      "ĠRory": 8079,
      "ĠRiding": 8080,
      "ĠRhythm": 8081,
      "ĠRudy": 8082,
      "ĠRibbit": 8083,
      "Ġappe": 8084,
      "Ġhandsome": 8085,
      "Ġworksh": 8086,
      "ĠSpark": 8087,
      "ĠNan": 8088,
      "Ġdifferently": 8089,
      "Ġforgives": 8090,
      "Ġleaking": 8091,
      "Ġgladly": 8092,
      "Ġdrawers": 8093,
      "Ġtasting": 8094,
      "Ġstepping": 8095,
      "Ġparted": 8096,
      "Ġmovement": 8097,
      "ĠKen": 8098,
      "ĠTherese": 8099,
      "Ġsails": 8100,
      "Ġgulp": 8101,
      "Ġcompan": 8102,
      "Ġvegg": 8103,
      "Ġgrows": 8104,
      "ixie": 8105,
      "ĠFlutter": 8106,
      "iggs": 8107,
      "udged": 8108,
      "Ġshaped": 8109,
      "Ġbaths": 8110,
      "umbling": 8111,
      "Ġnaps": 8112,
      "Ġriverbank": 8113,
      "Ġdesigning": 8114,
      "Dog": 8115,
      "Ġforgets": 8116,
      "Ġpastries": 8117,
      "Ġmysteries": 8118,
      "Ġinvol": 8119,
      "ÅĵIf": 8120,
      "Ġresponse": 8121,
      "Ġlifts": 8122,
      "Ġpurpose": 8123,
      "ertain": 8124,
      "ertie": 8125,
      "Ġchoices": 8126,
      "Ġpicnics": 8127,
      "Ġanswering": 8128,
      "Ġpills": 8129,
      "Everyday": 8130,
      "ĠOuch": 8131,
      "ĠOff": 8132,
      "Ġpizzas": 8133,
      "Ġbells": 8134,
      "Ġbellies": 8135,
      "Ġgarbage": 8136,
      "Ġself": 8137,
      "Ġtrusting": 8138,
      "Ġregister": 8139,
      "Ġdecorating": 8140,
      "Ġtests": 8141,
      "illiam": 8142,
      "Ġcracker": 8143,
      "Ġzookeeper": 8144,
      "arlon": 8145,
      "Ġmanager": 8146,
      "Ġscrub": 8147,
      "Ġscrambled": 8148,
      "Ġmodels": 8149,
      "Ġbullies": 8150,
      "Ġgoats": 8151,
      "Ġscarves": 8152,
      "Ġincredibly": 8153,
      "Ġtickling": 8154,
      "Ġprayers": 8155,
      "Ġorders": 8156,
      "ippers": 8157,
      "Ġpiled": 8158,
      "Ġdesks": 8159,
      "ĠZara": 8160,
      "ĠZip": 8161,
      "ĠZero": 8162,
      "eezes": 8163,
      "Ġpans": 8164,
      "Ġkangaroos": 8165,
      "ĠNoah": 8166,
      "Ġrescuing": 8167,
      "Ġspeeding": 8168,
      "Ġquestioned": 8169,
      "Ġpermitted": 8170,
      "ivia": 8171,
      "Ġcuddly": 8172,
      "Ġsniffing": 8173,
      "Ġpepperoni": 8174,
      "Ġmember": 8175,
      "Ġpencils": 8176,
      "Ġdiscoveries": 8177,
      "ĠTrust": 8178,
      "Ġmillion": 8179,
      "Ġcroaked": 8180,
      "Ġspelling": 8181,
      "Ġbracelets": 8182,
      "ĠshouldnÃ¢": 8183,
      "Ġappreciation": 8184,
      "Ġpads": 8185,
      "abina": 8186,
      "Ġthumbs": 8187,
      "Ġdisturbing": 8188,
      "Anne": 8189,
      "Ġpigeons": 8190,
      "Ġcomputers": 8191,
      "Ġreversed": 8192,
      "Ġreversing": 8193,
      "aitlyn": 8194,
      "Ġfreezing": 8195,
      "Ġpurring": 8196,
      "Ġchatted": 8197,
      "Ġweighs": 8198,
      "Ġapplauding": 8199,
      "Ġscratching": 8200,
      "Alright": 8201,
      "Ġsqueaked": 8202,
      "Ġsqueaky": 8203,
      "ĠWhoever": 8204,
      "ĠOliver": 8205,
      "ĠOlivia": 8206,
      "ĠLiza": 8207,
      "Ġlumberjack": 8208,
      "Ġweights": 8209,
      "Ġpresses": 8210,
      "ĠPatty": 8211,
      "Ġspits": 8212,
      "Ġcaution": 8213,
      "Ġresponsibly": 8214,
      "Ġactivity": 8215,
      "ĠTessa": 8216,
      "Ġastonished": 8217,
      "Years": 8218,
      "Ġsewing": 8219,
      "Ġsilently": 8220,
      "ĠJean": 8221,
      "Ġunfamiliar": 8222,
      "Julie": 8223,
      "Ġbehaved": 8224,
      "Ġmaterial": 8225,
      "Ġrecords": 8226,
      "rrr": 8227,
      "Ġcustomer": 8228,
      "ĠSwim": 8229,
      "ĠWinter": 8230,
      "Ġtemptation": 8231,
      "Ġstrolled": 8232,
      "Ġtingle": 8233,
      "ĠAngie": 8234,
      "ĠAngelina": 8235,
      "Ġglittering": 8236,
      "Ġfocused": 8237,
      "Ġembarrassing": 8238,
      "Ġdetails": 8239,
      "ummies": 8240,
      "Ġexpression": 8241,
      "ĠSharin": 8242,
      "ĠPrincess": 8243,
      "Ġcashier": 8244,
      "Ġinspired": 8245,
      "Ġgeese": 8246,
      "ĠSleepy": 8247,
      "Ġcubes": 8248,
      "Ġconversation": 8249,
      "Froggy": 8250,
      "ĠClarice": 8251,
      "Ġmasterpiece": 8252,
      "Ġcongratulated": 8253,
      "ĠLibby": 8254,
      "ĠExcited": 8255,
      "ĠColorful": 8256,
      "ĠSpeedy": 8257,
      "Ġsnowflakes": 8258,
      "Ġsomersaul": 8259,
      "Ġtheatre": 8260,
      "Ġfulf": 8261,
      "Ġdarlings": 8262,
      "ĠSnuggles": 8263,
      "ĠHalloween": 8264,
      "Ġswollen": 8265,
      "ĠDependable": 8266,
      "Ġworkshop": 8267,
      "Ġveggies": 8268,
      "Bee": 8269,
      "Doug": 8270,
      "David": 8271,
      "Elly": 8272,
      "Gl": 8273,
      "Get": 8274,
      "Gigi": 8275,
      "Hmm": 8276,
      "June": 8277,
      "Lizzie": 8278,
      "Mine": 8279,
      "Micky": 8280,
      "Mabel": 8281,
      "Nee": 8282,
      "Nutty": 8283,
      "Ol": 8284,
      "Oops": 8285,
      "Open": 8286,
      "Pa": 8287,
      "Put": 8288,
      "Paula": 8289,
      "Red": 8290,
      "Robby": 8291,
      "Rosie": 8292,
      "Rita": 8293,
      "Sun": 8294,
      "Silly": 8295,
      "Sunny": 8296,
      "Slowly": 8297,
      "Too": 8298,
      "Woof": 8299,
      "Zoe": 8300,
      "action": 8301,
      "bi": 8302,
      "bur": 8303,
      "cip": 8304,
      "cled": 8305,
      "cup": 8306,
      "ein": 8307,
      "ebe": 8308,
      "five": 8309,
      "fork": 8310,
      "ieter": 8311,
      "lo": 8312,
      "lt": 8313,
      "lish": 8314,
      "oc": 8315,
      "oss": 8316,
      "oey": 8317,
      "ping": 8318,
      "sion": 8319,
      "tock": 8320,
      "teen": 8321,
      "we": 8322,
      "whe": 8323,
      "ware": 8324,
      "welcome": 8325,
      "Ġill": 8326,
      "ĠOh": 8327,
      "Ġtiss": 8328,
      "Ġtugging": 8329,
      "Ġtummies": 8330,
      "innie": 8331,
      "Ġbom": 8332,
      "Ġborn": 8333,
      "Ġwag": 8334,
      "Ġwax": 8335,
      "Ġwakes": 8336,
      "Ġcages": 8337,
      "erted": 8338,
      "Ġpec": 8339,
      "ĠTino": 8340,
      "isions": 8341,
      "ido": 8342,
      "Ġsav": 8343,
      "ena": 8344,
      "ening": 8345,
      "Ġnym": 8346,
      "Ġnibb": 8347,
      "ĠSk": 8348,
      "ĠSna": 8349,
      "ĠSque": 8350,
      "ĠSuna": 8351,
      "ĠSummer": 8352,
      "ĠSince": 8353,
      "ĠSatur": 8354,
      "ĠSasha": 8355,
      "anet": 8356,
      "anish": 8357,
      "orking": 8358,
      "ĠHi": 8359,
      "ĠHarper": 8360,
      "Ġinj": 8361,
      "uther": 8362,
      "utely": 8363,
      "ighing": 8364,
      "Ġruff": 8365,
      "Ġrays": 8366,
      "Ġstur": 8367,
      "Ġstain": 8368,
      "cel": 8369,
      "cell": 8370,
      "ĠIm": 8371,
      "ĠIzzy": 8372,
      "ĠLots": 8373,
      "ĠLenny": 8374,
      "ĠLacy": 8375,
      "ĠLouie": 8376,
      "Ġplow": 8377,
      "adel": 8378,
      "ados": 8379,
      "stick": 8380,
      "elvet": 8381,
      "ĠweÃ¢": 8382,
      "Ġform": 8383,
      "Ġshallow": 8384,
      "allory": 8385,
      "ended": 8386,
      "Ġwhipped": 8387,
      "Ġwhoosh": 8388,
      "Ġrewards": 8389,
      "Ġrejo": 8390,
      "Ġreaction": 8391,
      "alia": 8392,
      "ĠMacy": 8393,
      "ĠMaple": 8394,
      "race": 8395,
      "Ġlocks": 8396,
      "Ġjay": 8397,
      "Ġsped": 8398,
      "Ġspat": 8399,
      "ĠJanie": 8400,
      "ĠAbi": 8401,
      "ighting": 8402,
      "Ġknots": 8403,
      "Ġknives": 8404,
      "Ġclut": 8405,
      "Ġscored": 8406,
      "Ġaloud": 8407,
      "Ġalthough": 8408,
      "Ġrobb": 8409,
      "Ġroast": 8410,
      "Ġbride": 8411,
      "Ġagrees": 8412,
      "Ġfaith": 8413,
      "Ġcoc": 8414,
      "Ġcosy": 8415,
      "elling": 8416,
      "Ġflick": 8417,
      "Ġwhose": 8418,
      "Ġdeciding": 8419,
      "Ġchanges": 8420,
      "Ġswords": 8421,
      "ooks": 8422,
      "Ġblues": 8423,
      "Ġblades": 8424,
      "Ġbloss": 8425,
      "Ġposes": 8426,
      "ĠFair": 8427,
      "ĠFae": 8428,
      "ĠFurball": 8429,
      "ĠFido": 8430,
      "oured": 8431,
      "Ġtrans": 8432,
      "master": 8433,
      "Ġskates": 8434,
      "andra": 8435,
      "Ġquieter": 8436,
      "ÅĵOkay": 8437,
      "ÅĵThere": 8438,
      "Ġslam": 8439,
      "Ġstrum": 8440,
      "ĠJog": 8441,
      "ĠJokes": 8442,
      "ĠJackie": 8443,
      "ortun": 8444,
      "ortunately": 8445,
      "empt": 8446,
      "Ġraises": 8447,
      "Ġracer": 8448,
      "Ġraising": 8449,
      "Ġgardens": 8450,
      "Ġgardener": 8451,
      "ĠCars": 8452,
      "ĠCelery": 8453,
      "ĠCurious": 8454,
      "ĠCleaning": 8455,
      "Ġbeautifully": 8456,
      "Ġcheated": 8457,
      "ctric": 8458,
      "Ġwoken": 8459,
      "ective": 8460,
      "Ġglued": 8461,
      "Ġgliding": 8462,
      "Ġhardest": 8463,
      "Ġloudest": 8464,
      "aste": 8465,
      "Ġtoward": 8466,
      "iped": 8467,
      "Ġstopping": 8468,
      "ĠPaw": 8469,
      "ĠPlay": 8470,
      "ĠPipsqueak": 8471,
      "ĠPinch": 8472,
      "ĠPetey": 8473,
      "Ġwinding": 8474,
      "Ġthrone": 8475,
      "ĠGina": 8476,
      "ĠGavin": 8477,
      "Ġunison": 8478,
      "Ġsmiley": 8479,
      "Josie": 8480,
      "ĠRoy": 8481,
      "ĠRock": 8482,
      "Ġdears": 8483,
      "Ġdevice": 8484,
      "Ġjoey": 8485,
      "Ġworker": 8486,
      "ĠSpanish": 8487,
      "Ġache": 8488,
      "Ġrains": 8489,
      "ĠNee": 8490,
      "ĠNancy": 8491,
      "Ġsurely": 8492,
      "Ġheadache": 8493,
      "Ġbuses": 8494,
      "Ġcontract": 8495,
      "Ġbiting": 8496,
      "Ġcrouched": 8497,
      "uffle": 8498,
      "Ġhops": 8499,
      "Ġdressing": 8500,
      "Ġstorybook": 8501,
      "Ġthroughout": 8502,
      "ĠLeticia": 8503,
      "Ġworrying": 8504,
      "Ġprincip": 8505,
      "uliar": 8506,
      "Ġsingers": 8507,
      "Ġswimmer": 8508,
      "Ġmovements": 8509,
      "ĠDoes": 8510,
      "Ġmothers": 8511,
      "ĠEmilda": 8512,
      "Ġcraft": 8513,
      "Ġturnip": 8514,
      "ĠKin": 8515,
      "ĠKaitlyn": 8516,
      "Ġdances": 8517,
      "ĠJennifer": 8518,
      "ancing": 8519,
      "ances": 8520,
      "ancake": 8521,
      "Ġelectric": 8522,
      "meow": 8523,
      "uggy": 8524,
      "Ġattitude": 8525,
      "Ġattempt": 8526,
      "Ġwelcoming": 8527,
      "Ġrivers": 8528,
      "ounce": 8529,
      "Ġteachers": 8530,
      "Ġsprout": 8531,
      "ounting": 8532,
      "Ġpackages": 8533,
      "Ġseaweed": 8534,
      "Ġexpert": 8535,
      "Ġbelongings": 8536,
      "Ġpreschool": 8537,
      "Ġpresented": 8538,
      "Ġsurvive": 8539,
      "Ġpractised": 8540,
      "Ġearn": 8541,
      "Ġearned": 8542,
      "Ġshrank": 8543,
      "Ġpasses": 8544,
      "Ġtunes": 8545,
      "Ġwildebe": 8546,
      "ĠChad": 8547,
      "Ġkicks": 8548,
      "Ġreminds": 8549,
      "Ġlaying": 8550,
      "Ġprotection": 8551,
      "Ġignoring": 8552,
      "Ġzooms": 8553,
      "Ġspears": 8554,
      "Ġmedals": 8555,
      "ĠStay": 8556,
      "Ġtidied": 8557,
      "Ġtrusts": 8558,
      "Ġcapes": 8559,
      "Ġstretches": 8560,
      "Ġsprays": 8561,
      "flies": 8562,
      "Ġangels": 8563,
      "Ġangrily": 8564,
      "Ġtanks": 8565,
      "Ġadds": 8566,
      "Ġfrowns": 8567,
      "Ġterrified": 8568,
      "Emmy": 8569,
      "Ġwiser": 8570,
      "Ġwisely": 8571,
      "ĠBrad": 8572,
      "ĠMarvin": 8573,
      "Ġharmony": 8574,
      "Ġrelaxing": 8575,
      "Ġcactuses": 8576,
      "ĠZigzag": 8577,
      "undred": 8578,
      "Ġawful": 8579,
      "Ġgrandd": 8580,
      "Ġsunflowers": 8581,
      "ĠSnowball": 8582,
      "Ġtwisty": 8583,
      "Ġguesses": 8584,
      "Ġhunting": 8585,
      "Ġhammered": 8586,
      "Ġstreamers": 8587,
      "Ġcorners": 8588,
      "Ġcampsite": 8589,
      "ĠDavey": 8590,
      "Ġpostmaster": 8591,
      "ĠPeggy": 8592,
      "Ġcuddles": 8593,
      "Ġcuddling": 8594,
      "Ġsniffled": 8595,
      "Ġcompliment": 8596,
      "ĠUp": 8597,
      "Ġsweat": 8598,
      "Ġunpacking": 8599,
      "Ġrepeating": 8600,
      "uction": 8601,
      "Ġtravels": 8602,
      "ĠTrouble": 8603,
      "Ġdiamonds": 8604,
      "Ġscattering": 8605,
      "Ġknocks": 8606,
      "Ġknocking": 8607,
      "Ġwindowsill": 8608,
      "Ġburns": 8609,
      "Ġsending": 8610,
      "Ġexperiment": 8611,
      "Ġknobs": 8612,
      "ĠWhippy": 8613,
      "Ġlabels": 8614,
      "Charles": 8615,
      "Ġspringing": 8616,
      "Ġhumans": 8617,
      "Willie": 8618,
      "Ġscolds": 8619,
      "ĠRod": 8620,
      "Ġvehicles": 8621,
      "Ġluckiest": 8622,
      "abra": 8623,
      "Ġstacked": 8624,
      "Ġexplaining": 8625,
      "Isn": 8626,
      "manda": 8627,
      "Ġproviding": 8628,
      "ibility": 8629,
      "Ġrotting": 8630,
      "Ġgolfer": 8631,
      "Ġpinching": 8632,
      "Ġincreasing": 8633,
      "Ġstroke": 8634,
      "Ġavocados": 8635,
      "Ġfloats": 8636,
      "ĠJessi": 8637,
      "Ġclubs": 8638,
      "Ġzigzagging": 8639,
      "Ġlanguages": 8640,
      "ĠSuper": 8641,
      "Ġtrembled": 8642,
      "Ġpitchfork": 8643,
      "Ġresponsibility": 8644,
      "Shh": 8645,
      "Ġminerals": 8646,
      "Ġclicked": 8647,
      "Ġescaping": 8648,
      "Ġswaying": 8649,
      "Ġfashions": 8650,
      "ĠGreene": 8651,
      "Roar": 8652,
      "Roger": 8653,
      "Ġcentre": 8654,
      "ĠSimone": 8655,
      "ĠBeef": 8656,
      "Ġfetched": 8657,
      "Ġforgiving": 8658,
      "Ġconcent": 8659,
      "Ġconnect": 8660,
      "Ġcotton": 8661,
      "asmine": 8662,
      "Ġexpecting": 8663,
      "Ġannoying": 8664,
      "Jessica": 8665,
      "Ġwinks": 8666,
      "Ġopinions": 8667,
      "Ġtype": 8668,
      "Ġtypes": 8669,
      "Ġstalls": 8670,
      "Ġchoosing": 8671,
      "Ġattacked": 8672,
      "ĠSharon": 8673,
      "Anytime": 8674,
      "Ġslithered": 8675,
      "Ġconfusion": 8676,
      "Ġcommunic": 8677,
      "Ġmunching": 8678,
      "ĠSabrina": 8679,
      "Ġrefuse": 8680,
      "Ġunloaded": 8681,
      "Ġundo": 8682,
      "Ġblonde": 8683,
      "Ġconflict": 8684,
      "Ġdisappointment": 8685,
      "Ġsculptures": 8686,
      "Ġfaint": 8687,
      "Ġdepths": 8688,
      "Ġmurky": 8689,
      "Ġopportun": 8690,
      "ĠPiper": 8691,
      "Ġdisobey": 8692,
      "solutely": 8693,
      "Blue": 8694,
      "Ġaisle": 8695,
      "Ġthorns": 8696,
      "Ġyelped": 8697,
      "Ġnecessary": 8698,
      "Ġexploded": 8699,
      "Ġcompanion": 8700,
      "Glad": 8701,
      "cupine": 8702,
      "Ġbomb": 8703,
      "Ġpeculiar": 8704,
      "Ġnymph": 8705,
      "ĠSqueaky": 8706,
      "ĠSaturday": 8707,
      "Ġsturdy": 8708,
      "adeline": 8709,
      "Ġtransform": 8710,
      "ĠPinchy": 8711,
      "ĠNeeNee": 8712,
      "Ġprincipal": 8713,
      "Ġwildebeest": 8714,
      "',": 8715,
      ",'": 8716,
      "Ab": 8717,
      "Amelia": 8718,
      "Again": 8719,
      "BC": 8720,
      "Big": 8721,
      "Bang": 8722,
      "Bird": 8723,
      "Buzzy": 8724,
      "Binky": 8725,
      "Baa": 8726,
      "Curious": 8727,
      "De": 8728,
      "Despite": 8729,
      "Each": 8730,
      "Fortunately": 8731,
      "Gr": 8732,
      "Gabby": 8733,
      "Karen": 8734,
      "Luna": 8735,
      "Louie": 8736,
      "Mo": 8737,
      "Mart": 8738,
      "Mazzy": 8739,
      "Nick": 8740,
      "Nana": 8741,
      "New": 8742,
      "RR": 8743,
      "Rec": 8744,
      "Rain": 8745,
      "Rory": 8746,
      "Su": 8747,
      "Sim": 8748,
      "Sir": 8749,
      "Snow": 8750,
      "Two": 8751,
      "Win": 8752,
      "Watch": 8753,
      "Zoom": 8754,
      "aved": 8755,
      "aqu": 8756,
      "aving": 8757,
      "bu": 8758,
      "che": 8759,
      "cad": 8760,
      "care": 8761,
      "die": 8762,
      "dies": 8763,
      "free": 8764,
      "fess": 8765,
      "fived": 8766,
      "hand": 8767,
      "haps": 8768,
      "ial": 8769,
      "iens": 8770,
      "jest": 8771,
      "kle": 8772,
      "look": 8773,
      "line": 8774,
      "lied": 8775,
      "ners": 8776,
      "ode": 8777,
      "olyn": 8778,
      "py": 8779,
      "rack": 8780,
      "sm": 8781,
      "saw": 8782,
      "sitter": 8783,
      "vroom": 8784,
      "wing": 8785,
      "wen": 8786,
      "what": 8787,
      "why": 8788,
      "ynn": 8789,
      "zip": 8790,
      "Â¦": 8791,
      "Â«": 8792,
      "Â»": 8793,
      "ĠOf": 8794,
      "ĠYum": 8795,
      "ĠQuick": 8796,
      "hew": 8797,
      "Ġtying": 8798,
      "Ġarom": 8799,
      "Ġaqu": 8800,
      "Ġsus": 8801,
      "Ġsipped": 8802,
      "Ġwetter": 8803,
      "Ġwoof": 8804,
      "inny": 8805,
      "incts": 8806,
      "Ġhind": 8807,
      "Ġhundred": 8808,
      "Ġwad": 8809,
      "rect": 8810,
      "Ġfade": 8811,
      "Ġfus": 8812,
      "Ġlim": 8813,
      "Ġcoug": 8814,
      "Ġcertain": 8815,
      "erg": 8816,
      "erk": 8817,
      "Ġdent": 8818,
      "Ġdart": 8819,
      "Ġmood": 8820,
      "Ġmunched": 8821,
      "Ġpitc": 8822,
      "Ġpipes": 8823,
      "ĠTwig": 8824,
      "ingle": 8825,
      "armer": 8826,
      "arrow": 8827,
      "Ġgri": 8828,
      "Ġgroom": 8829,
      "Ġgumb": 8830,
      "Ġgorge": 8831,
      "idnight": 8832,
      "ative": 8833,
      "atform": 8834,
      "Ġni": 8835,
      "Ġnood": 8836,
      "Ġniece": 8837,
      "ĠSel": 8838,
      "ĠSilly": 8839,
      "ĠSitting": 8840,
      "ĠSeth": 8841,
      "ĠSora": 8842,
      "immered": 8843,
      "lest": 8844,
      "etch": 8845,
      "ĠHoney": 8846,
      "ĠHope": 8847,
      "ĠHoot": 8848,
      "esha": 8849,
      "Ġuna": 8850,
      "Ġyumm": 8851,
      "ooo": 8852,
      "oops": 8853,
      "ige": 8854,
      "Ġbegs": 8855,
      "aming": 8856,
      "ammy": 8857,
      "Ġrack": 8858,
      "Ġrings": 8859,
      "Ġrott": 8860,
      "Ġrips": 8861,
      "Ġstate": 8862,
      "Ġstalk": 8863,
      "Ġstumble": 8864,
      "Ġstitched": 8865,
      "Ġsheets": 8866,
      "Ġsoaking": 8867,
      "rier": 8868,
      "ripe": 8869,
      "ĠLou": 8870,
      "ĠLightning": 8871,
      "ĠLynn": 8872,
      "Ġplatform": 8873,
      "adually": 8874,
      "Ġforced": 8875,
      "Ġformed": 8876,
      "ĠBang": 8877,
      "ĠBillie": 8878,
      "ĠBiggs": 8879,
      "ĠBuggy": 8880,
      "Ġlies": 8881,
      "Ġshots": 8882,
      "Ġshimmered": 8883,
      "alled": 8884,
      "Ġwhirl": 8885,
      "Ġwhizz": 8886,
      "Ġsmashed": 8887,
      "Ġrely": 8888,
      "Ġrecept": 8889,
      "Ġnoticing": 8890,
      "Ġankle": 8891,
      "ĠMadeline": 8892,
      "ĠMidnight": 8893,
      "rap": 8894,
      "Ġloses": 8895,
      "Ġbold": 8896,
      "Ġboiled": 8897,
      "Ġbodies": 8898,
      "Ġspout": 8899,
      "ĠJin": 8900,
      "ĠJay": 8901,
      "ĠJax": 8902,
      "ĠAr": 8903,
      "ĠAna": 8904,
      "ĠAunt": 8905,
      "ĠAgain": 8906,
      "ĠAyla": 8907,
      "ĠABC": 8908,
      "icle": 8909,
      "ical": 8910,
      "ically": 8911,
      "âĤ¬Â¦": 8912,
      "Ġclue": 8913,
      "Ġclucked": 8914,
      "Ġclerk": 8915,
      "Ġscre": 8916,
      "gets": 8917,
      "getic": 8918,
      "Ġaliens": 8919,
      "Ġmeals": 8920,
      "ĠWil": 8921,
      "ĠWendy": 8922,
      "ĠWilliam": 8923,
      "ĠWorking": 8924,
      "ager": 8925,
      "Ġparking": 8926,
      "Ġcarries": 8927,
      "Ġlava": 8928,
      "Ġfluff": 8929,
      "Ġflipped": 8930,
      "Ġdecisions": 8931,
      "Ġchill": 8932,
      "Ġchunk": 8933,
      "ĠElin": 8934,
      "roll": 8935,
      "Ġvines": 8936,
      "Ġblown": 8937,
      "Ġdoggie": 8938,
      "Ġabsolutely": 8939,
      "istened": 8940,
      "Ġtapped": 8941,
      "Ġtaped": 8942,
      "Ġkeen": 8943,
      "Ġoldest": 8944,
      "Ġlookout": 8945,
      "Ġpeak": 8946,
      "Ġsunsc": 8947,
      "Ġtrudged": 8948,
      "maker": 8949,
      "venir": 8950,
      "Ġskunk": 8951,
      "Ġench": 8952,
      "Ġexplode": 8953,
      "ÅĵP": 8954,
      "ÅĵPlease": 8955,
      "ÅĵHow": 8956,
      "ÅĵAre": 8957,
      "ÅĵBecause": 8958,
      "Ġopt": 8959,
      "Ġsledding": 8960,
      "uccess": 8961,
      "ĠJoanna": 8962,
      "Ġbud": 8963,
      "Ġbubbling": 8964,
      "izmo": 8965,
      "Ġbeavers": 8966,
      "Yesterday": 8967,
      "Ġdonkey": 8968,
      "Ġraces": 8969,
      "ĠWeÃ¢": 8970,
      "ĠCow": 8971,
      "ĠCould": 8972,
      "ĠCla": 8973,
      "ĠConnie": 8974,
      "ĠClem": 8975,
      "ĠCounting": 8976,
      "Ġsnoo": 8977,
      "Ġsnug": 8978,
      "Ġsnort": 8979,
      "Ġglinted": 8980,
      "Ġglisten": 8981,
      "Ġglistened": 8982,
      "Ġsurprising": 8983,
      "Ġconvin": 8984,
      "Ġconstr": 8985,
      "Ġdollars": 8986,
      "ĠPer": 8987,
      "ĠPain": 8988,
      "ĠPixie": 8989,
      "ĠPancake": 8990,
      "Ġbookmark": 8991,
      "Ġrealise": 8992,
      "Ġrealizing": 8993,
      "ĠGoose": 8994,
      "ĠGertie": 8995,
      "Ġunfortunately": 8996,
      "Ġdiscou": 8997,
      "Ġdisbel": 8998,
      "ĠRay": 8999,
      "ĠRight": 9000,
      "Ġmaid": 9001,
      "acles": 9002,
      "Ġworkman": 9003,
      "Ġforests": 9004,
      "Ġlistener": 9005,
      "ĠSprink": 9006,
      "ĠNice": 9007,
      "Ġsquir": 9008,
      "Ġsquished": 9009,
      "Ġbrightened": 9010,
      "Ġbushy": 9011,
      "Ġbits": 9012,
      "Ġstores": 9013,
      "JohnÃ¢": 9014,
      "Ġfireflies": 9015,
      "Ġcounts": 9016,
      "Ġflopped": 9017,
      "Ġsoftest": 9018,
      "issa": 9019,
      "Ġsteering": 9020,
      "boards": 9021,
      "Ġtriang": 9022,
      "Ġbuyer": 9023,
      "Ġbuilders": 9024,
      "Ġlefto": 9025,
      "Ġlessons": 9026,
      "Ġbowing": 9027,
      "Ġtablecl": 9028,
      "Ġsnowy": 9029,
      "ĠKari": 9030,
      "ĠKiki": 9031,
      "Ġtighter": 9032,
      "Ġmarve": 9033,
      "Ġdancers": 9034,
      "Ġbabysitter": 9035,
      "ĠGracie": 9036,
      "Ġguided": 9037,
      "Ġsideways": 9038,
      "Ġvisits": 9039,
      "Ġvisitor": 9040,
      "Ġvisitors": 9041,
      "meal": 9042,
      "Ġhideout": 9043,
      "Ġcreams": 9044,
      "Ġattend": 9045,
      "Ġprofess": 9046,
      "Ġgentleman": 9047,
      "iety": 9048,
      "Ġpersu": 9049,
      "Ġminus": 9050,
      "Andi": 9051,
      "Ġnaughtiness": 9052,
      "Ġinstantly": 9053,
      "Ġinstincts": 9054,
      "Ġpacket": 9055,
      "Ġdistract": 9056,
      "Ġcorrect": 9057,
      "Ġmarks": 9058,
      "Ġgiggles": 9059,
      "Ġcircled": 9060,
      "Ġshrunk": 9061,
      "Ġburnt": 9062,
      "Ġburger": 9063,
      "Ġsacks": 9064,
      "ĠCharles": 9065,
      "Ġserving": 9066,
      "ĠOur": 9067,
      "ĠOink": 9068,
      "Ġgroups": 9069,
      "Ġbreaths": 9070,
      "Ġminds": 9071,
      "Startled": 9072,
      "Ġgasp": 9073,
      "Ġgasps": 9074,
      "ĠStartled": 9075,
      "ĠSteven": 9076,
      "Ġcoolest": 9077,
      "Ġsupplied": 9078,
      "Ġhumming": 9079,
      "Ġprices": 9080,
      "Ġchews": 9081,
      "ĠDonÃ¢": 9082,
      "Ġstuffing": 9083,
      "Ġspoiling": 9084,
      "arium": 9085,
      "Ġmeasurements": 9086,
      "Ġgoldfish": 9087,
      "Ġhonesty": 9088,
      "Ġchecking": 9089,
      "Ġcheckout": 9090,
      "Ġzips": 9091,
      "ĠZog": 9092,
      "Ġrats": 9093,
      "Meanwhile": 9094,
      "ĠCluck": 9095,
      "ĠCloe": 9096,
      "Ġaware": 9097,
      "Ġoatmeal": 9098,
      "ĠAlicia": 9099,
      "Ġskips": 9100,
      "Ġteamwork": 9101,
      "Ġguessing": 9102,
      "Ġhamster": 9103,
      "Ġstreams": 9104,
      "Ġloading": 9105,
      "Ġghosts": 9106,
      "Ġcharity": 9107,
      "Ġpostbox": 9108,
      "Ġseriously": 9109,
      "Ġpedd": 9110,
      "ĠUnder": 9111,
      "Ġinsistent": 9112,
      "Ġinserted": 9113,
      "Ġsweaty": 9114,
      "Ġstamped": 9115,
      "Ġguarding": 9116,
      "Ġhelmets": 9117,
      "Ġrecognizing": 9118,
      "Ġshorts": 9119,
      "uctor": 9120,
      "ĠWherever": 9121,
      "Ġpitched": 9122,
      "ĠJuliet": 9123,
      "Ġsunsets": 9124,
      "Ġenergetic": 9125,
      "ĠTonya": 9126,
      "Ġfans": 9127,
      "ĠWillow": 9128,
      "Ġexplains": 9129,
      "Ġthreads": 9130,
      "Ġflamebird": 9131,
      "Ġporcupine": 9132,
      "ĠInstantly": 9133,
      "Ġmelody": 9134,
      "Ġweapons": 9135,
      "ĠFrankie": 9136,
      "Ġbulbs": 9137,
      "Ġentering": 9138,
      "Ġstrokes": 9139,
      "Ġleaks": 9140,
      "Ġchatting": 9141,
      "Ġdifferences": 9142,
      "Ġproper": 9143,
      "Ġdaily": 9144,
      "Ġjudges": 9145,
      "Ġventure": 9146,
      "ĠMean": 9147,
      "Ġburying": 9148,
      "Ġsprinkle": 9149,
      "ĠChirpie": 9150,
      "ĠVol": 9151,
      "ĠVito": 9152,
      "Ġtongues": 9153,
      "Ġrustle": 9154,
      "Ġwiggly": 9155,
      "Ġblender": 9156,
      "Ġseagulls": 9157,
      "ĠAnny": 9158,
      "Ġbrushing": 9159,
      "Ġchallenged": 9160,
      "Ġairplanes": 9161,
      "Ġgazing": 9162,
      "Ġannounced": 9163,
      "ĠCarla": 9164,
      "ĠGrammy": 9165,
      "Ġsituations": 9166,
      "ĠRaven": 9167,
      "Ġoperator": 9168,
      "Ġnoddle": 9169,
      "Ġreleasing": 9170,
      "Ġsewed": 9171,
      "Ġencourages": 9172,
      "Robbie": 9173,
      "Ġscaly": 9174,
      "Ġcrowded": 9175,
      "Ġparticularly": 9176,
      "Ġcommon": 9177,
      "Ġdeserved": 9178,
      "Ġspilling": 9179,
      "Ġcupcakes": 9180,
      "Ġexperiences": 9181,
      "ĠCopper": 9182,
[...]
